// Auto-generated from model_kd_big_pruned_30_quant_fp16.tflite
// Size: 24.2 KB (24796 bytes)

#ifndef MODEL_DATA_H
#define MODEL_DATA_H

const unsigned int MODEL_DATA_LENGTH = 24796;
alignas(8) const unsigned char MODEL_DATA[] = {
  0x1c, 0x00, 0x00, 0x00, 0x54, 0x46, 0x4c, 0x33, 0x14, 0x00, 0x20, 0x00,
  0x1c, 0x00, 0x18, 0x00, 0x14, 0x00, 0x10, 0x00, 0x0c, 0x00, 0x00, 0x00,
  0x08, 0x00, 0x04, 0x00, 0x14, 0x00, 0x00, 0x00, 0x1c, 0x00, 0x00, 0x00,
  0x94, 0x00, 0x00, 0x00, 0x1c, 0x01, 0x00, 0x00, 0x18, 0x3e, 0x00, 0x00,
  0x28, 0x3e, 0x00, 0x00, 0x08, 0x60, 0x00, 0x00, 0x03, 0x00, 0x00, 0x00,
  0x01, 0x00, 0x00, 0x00, 0x04, 0x00, 0x00, 0x00, 0x9a, 0xbc, 0xff, 0xff,
  0x0c, 0x00, 0x00, 0x00, 0x1c, 0x00, 0x00, 0x00, 0x40, 0x00, 0x00, 0x00,
  0x0f, 0x00, 0x00, 0x00, 0x73, 0x65, 0x72, 0x76, 0x69, 0x6e, 0x67, 0x5f,
  0x64, 0x65, 0x66, 0x61, 0x75, 0x6c, 0x74, 0x00, 0x01, 0x00, 0x00, 0x00,
  0x04, 0x00, 0x00, 0x00, 0x58, 0xff, 0xff, 0xff, 0x3d, 0x00, 0x00, 0x00,
  0x04, 0x00, 0x00, 0x00, 0x0e, 0x00, 0x00, 0x00, 0x73, 0x6f, 0x66, 0x74,
  0x6d, 0x61, 0x78, 0x5f, 0x65, 0x78, 0x70, 0x6f, 0x72, 0x74, 0x00, 0x00,
  0x01, 0x00, 0x00, 0x00, 0x04, 0x00, 0x00, 0x00, 0x4a, 0xc1, 0xff, 0xff,
  0x04, 0x00, 0x00, 0x00, 0x10, 0x00, 0x00, 0x00, 0x73, 0x65, 0x71, 0x75,
  0x65, 0x6e, 0x74, 0x69, 0x61, 0x6c, 0x5f, 0x69, 0x6e, 0x70, 0x75, 0x74,
  0x00, 0x00, 0x00, 0x00, 0x03, 0x00, 0x00, 0x00, 0x64, 0x00, 0x00, 0x00,
  0x2c, 0x00, 0x00, 0x00, 0x04, 0x00, 0x00, 0x00, 0xb0, 0xff, 0xff, 0xff,
  0x41, 0x00, 0x00, 0x00, 0x04, 0x00, 0x00, 0x00, 0x13, 0x00, 0x00, 0x00,
  0x43, 0x4f, 0x4e, 0x56, 0x45, 0x52, 0x53, 0x49, 0x4f, 0x4e, 0x5f, 0x4d,
  0x45, 0x54, 0x41, 0x44, 0x41, 0x54, 0x41, 0x00, 0xd4, 0xff, 0xff, 0xff,
  0x40, 0x00, 0x00, 0x00, 0x04, 0x00, 0x00, 0x00, 0x19, 0x00, 0x00, 0x00,
  0x72, 0x65, 0x64, 0x75, 0x63, 0x65, 0x64, 0x5f, 0x70, 0x72, 0x65, 0x63,
  0x69, 0x73, 0x69, 0x6f, 0x6e, 0x5f, 0x73, 0x75, 0x70, 0x70, 0x6f, 0x72,
  0x74, 0x00, 0x00, 0x00, 0x08, 0x00, 0x0c, 0x00, 0x08, 0x00, 0x04, 0x00,
  0x08, 0x00, 0x00, 0x00, 0x3f, 0x00, 0x00, 0x00, 0x04, 0x00, 0x00, 0x00,
  0x13, 0x00, 0x00, 0x00, 0x6d, 0x69, 0x6e, 0x5f, 0x72, 0x75, 0x6e, 0x74,
  0x69, 0x6d, 0x65, 0x5f, 0x76, 0x65, 0x72, 0x73, 0x69, 0x6f, 0x6e, 0x00,
  0x42, 0x00, 0x00, 0x00, 0xf8, 0x3c, 0x00, 0x00, 0xf0, 0x3c, 0x00, 0x00,
  0xdc, 0x3c, 0x00, 0x00, 0xc8, 0x3c, 0x00, 0x00, 0xb4, 0x3c, 0x00, 0x00,
  0x14, 0x35, 0x00, 0x00, 0x8c, 0x30, 0x00, 0x00, 0xf0, 0x2e, 0x00, 0x00,
  0x08, 0x2c, 0x00, 0x00, 0x4c, 0x26, 0x00, 0x00, 0xe4, 0x1a, 0x00, 0x00,
  0x24, 0x04, 0x00, 0x00, 0x08, 0x04, 0x00, 0x00, 0xec, 0x03, 0x00, 0x00,
  0xd0, 0x03, 0x00, 0x00, 0xb4, 0x03, 0x00, 0x00, 0x98, 0x03, 0x00, 0x00,
  0x54, 0x03, 0x00, 0x00, 0x2c, 0x03, 0x00, 0x00, 0x04, 0x03, 0x00, 0x00,
  0xc8, 0x02, 0x00, 0x00, 0x8c, 0x02, 0x00, 0x00, 0x24, 0x02, 0x00, 0x00,
  0xe8, 0x01, 0x00, 0x00, 0xe0, 0x01, 0x00, 0x00, 0xd8, 0x01, 0x00, 0x00,
  0xd0, 0x01, 0x00, 0x00, 0xc8, 0x01, 0x00, 0x00, 0xc0, 0x01, 0x00, 0x00,
  0xb8, 0x01, 0x00, 0x00, 0xb0, 0x01, 0x00, 0x00, 0xa8, 0x01, 0x00, 0x00,
  0xa0, 0x01, 0x00, 0x00, 0x98, 0x01, 0x00, 0x00, 0x90, 0x01, 0x00, 0x00,
  0x88, 0x01, 0x00, 0x00, 0x80, 0x01, 0x00, 0x00, 0x78, 0x01, 0x00, 0x00,
  0x70, 0x01, 0x00, 0x00, 0x68, 0x01, 0x00, 0x00, 0x60, 0x01, 0x00, 0x00,
  0x58, 0x01, 0x00, 0x00, 0x50, 0x01, 0x00, 0x00, 0x48, 0x01, 0x00, 0x00,
  0x40, 0x01, 0x00, 0x00, 0x38, 0x01, 0x00, 0x00, 0x30, 0x01, 0x00, 0x00,
  0x28, 0x01, 0x00, 0x00, 0x20, 0x01, 0x00, 0x00, 0x18, 0x01, 0x00, 0x00,
  0x10, 0x01, 0x00, 0x00, 0x08, 0x01, 0x00, 0x00, 0x00, 0x01, 0x00, 0x00,
  0xf8, 0x00, 0x00, 0x00, 0xf0, 0x00, 0x00, 0x00, 0xe8, 0x00, 0x00, 0x00,
  0xe0, 0x00, 0x00, 0x00, 0xd8, 0x00, 0x00, 0x00, 0xd0, 0x00, 0x00, 0x00,
  0xc8, 0x00, 0x00, 0x00, 0xc0, 0x00, 0x00, 0x00, 0xb8, 0x00, 0x00, 0x00,
  0xb0, 0x00, 0x00, 0x00, 0x90, 0x00, 0x00, 0x00, 0x74, 0x00, 0x00, 0x00,
  0x04, 0x00, 0x00, 0x00, 0x02, 0xc3, 0xff, 0xff, 0x04, 0x00, 0x00, 0x00,
  0x60, 0x00, 0x00, 0x00, 0x0c, 0x00, 0x00, 0x00, 0x08, 0x00, 0x0e, 0x00,
  0x08, 0x00, 0x04, 0x00, 0x08, 0x00, 0x00, 0x00, 0x10, 0x00, 0x00, 0x00,
  0x28, 0x00, 0x00, 0x00, 0x00, 0x00, 0x06, 0x00, 0x08, 0x00, 0x04, 0x00,
  0x06, 0x00, 0x00, 0x00, 0x04, 0x00, 0x00, 0x00, 0x01, 0x00, 0x00, 0x00,
  0xe9, 0x03, 0x00, 0x00, 0x0c, 0x00, 0x18, 0x00, 0x14, 0x00, 0x10, 0x00,
  0x0c, 0x00, 0x04, 0x00, 0x0c, 0x00, 0x00, 0x00, 0x4a, 0xb4, 0xd5, 0xbd,
  0x05, 0xd1, 0x6b, 0x38, 0x02, 0x00, 0x00, 0x00, 0x02, 0x00, 0x00, 0x00,
  0x04, 0x00, 0x00, 0x00, 0x06, 0x00, 0x00, 0x00, 0x32, 0x2e, 0x32, 0x30,
  0x2e, 0x30, 0x00, 0x00, 0x6e, 0xc3, 0xff, 0xff, 0x04, 0x00, 0x00, 0x00,
  0x0b, 0x00, 0x00, 0x00, 0x66, 0x70, 0x31, 0x36, 0x61, 0x63, 0x63, 0x66,
  0x70, 0x33, 0x32, 0x00, 0x86, 0xc3, 0xff, 0xff, 0x04, 0x00, 0x00, 0x00,
  0x10, 0x00, 0x00, 0x00, 0x31, 0x2e, 0x31, 0x35, 0x2e, 0x30, 0x00, 0x00,
  0x00, 0x00, 0x00, 0x00, 0x00, 0x00, 0x00, 0x00, 0xf4, 0xa2, 0xff, 0xff,
  0xf8, 0xa2, 0xff, 0xff, 0xfc, 0xa2, 0xff, 0xff, 0x00, 0xa3, 0xff, 0xff,
  0x04, 0xa3, 0xff, 0xff, 0x08, 0xa3, 0xff, 0xff, 0x0c, 0xa3, 0xff, 0xff,
  0x10, 0xa3, 0xff, 0xff, 0x14, 0xa3, 0xff, 0xff, 0x18, 0xa3, 0xff, 0xff,
  0x1c, 0xa3, 0xff, 0xff, 0x20, 0xa3, 0xff, 0xff, 0x24, 0xa3, 0xff, 0xff,
  0x28, 0xa3, 0xff, 0xff, 0x2c, 0xa3, 0xff, 0xff, 0x30, 0xa3, 0xff, 0xff,
  0x34, 0xa3, 0xff, 0xff, 0x38, 0xa3, 0xff, 0xff, 0x3c, 0xa3, 0xff, 0xff,
  0x40, 0xa3, 0xff, 0xff, 0x44, 0xa3, 0xff, 0xff, 0x48, 0xa3, 0xff, 0xff,
  0x4c, 0xa3, 0xff, 0xff, 0x50, 0xa3, 0xff, 0xff, 0x54, 0xa3, 0xff, 0xff,
  0x58, 0xa3, 0xff, 0xff, 0x5c, 0xa3, 0xff, 0xff, 0x60, 0xa3, 0xff, 0xff,
  0x64, 0xa3, 0xff, 0xff, 0x68, 0xa3, 0xff, 0xff, 0x6c, 0xa3, 0xff, 0xff,
  0x70, 0xa3, 0xff, 0xff, 0x74, 0xa3, 0xff, 0xff, 0x78, 0xa3, 0xff, 0xff,
  0x7c, 0xa3, 0xff, 0xff, 0x80, 0xa3, 0xff, 0xff, 0x84, 0xa3, 0xff, 0xff,
  0x88, 0xa3, 0xff, 0xff, 0x8c, 0xa3, 0xff, 0xff, 0x3e, 0xc4, 0xff, 0xff,
  0x04, 0x00, 0x00, 0x00, 0x2c, 0x00, 0x00, 0x00, 0x64, 0x36, 0x25, 0x34,
  0x7b, 0x30, 0x86, 0x39, 0xbe, 0xb4, 0xdb, 0x39, 0x8b, 0x1d, 0x0b, 0xaf,
  0x7f, 0x34, 0x73, 0x34, 0x44, 0x29, 0xbb, 0xb2, 0xae, 0x39, 0xf2, 0xad,
  0x62, 0x98, 0x04, 0x30, 0x54, 0x2f, 0x79, 0x2f, 0x44, 0x33, 0x61, 0xb5,
  0xfe, 0x36, 0xc5, 0x33, 0x76, 0xc4, 0xff, 0xff, 0x04, 0x00, 0x00, 0x00,
  0x58, 0x00, 0x00, 0x00, 0x96, 0x2b, 0x25, 0x31, 0x8a, 0x24, 0xcf, 0x34,
  0xd4, 0xb2, 0xf7, 0xb0, 0x8b, 0xa8, 0x46, 0xb1, 0xb2, 0xb0, 0x4c, 0xb1,
  0x8c, 0xac, 0xc5, 0xa8, 0x1b, 0x26, 0x5d, 0xb0, 0xca, 0x33, 0xd5, 0xa8,
  0x67, 0x2e, 0xc9, 0xa2, 0x90, 0xb4, 0x18, 0xb0, 0xe0, 0xab, 0x59, 0xac,
  0x16, 0x2c, 0x12, 0x2c, 0x35, 0x2e, 0x53, 0x2c, 0x76, 0x32, 0xfa, 0x2b,
  0xb5, 0xb4, 0x91, 0x9c, 0x86, 0x2e, 0xe0, 0xab, 0x26, 0x2a, 0x01, 0x33,
  0x4c, 0xb0, 0x2f, 0xb6, 0xc3, 0xb3, 0x9b, 0xb3, 0x0c, 0xa5, 0xeb, 0x36,
  0x94, 0xb2, 0x1d, 0x2d, 0x52, 0xb0, 0xe9, 0xa8, 0xda, 0xc4, 0xff, 0xff,
  0x04, 0x00, 0x00, 0x00, 0x2c, 0x00, 0x00, 0x00, 0x3d, 0x35, 0x59, 0xac,
  0x82, 0x32, 0xab, 0x2f, 0x91, 0xad, 0x7d, 0xb0, 0x3f, 0x2f, 0x0c, 0xb3,
  0xe9, 0x30, 0xb2, 0x2c, 0x5b, 0xad, 0x17, 0xac, 0x0a, 0xae, 0xcd, 0xb0,
  0x19, 0xae, 0xdb, 0xa7, 0x3b, 0xac, 0xa2, 0x31, 0xbc, 0x25, 0x18, 0xaa,
  0xa9, 0x27, 0x71, 0xab, 0x12, 0xc5, 0xff, 0xff, 0x04, 0x00, 0x00, 0x00,
  0x2c, 0x00, 0x00, 0x00, 0xe7, 0x2b, 0xd0, 0xac, 0x8a, 0x32, 0x76, 0xb3,
  0x18, 0x36, 0x28, 0x30, 0x1e, 0x2f, 0x9e, 0xae, 0x57, 0xa2, 0xad, 0xb0,
  0x78, 0x30, 0x75, 0xb1, 0x0f, 0x2b, 0xf6, 0xaf, 0x25, 0xae, 0x3d, 0x21,
  0x63, 0x9f, 0x3f, 0x28, 0xea, 0x35, 0xd0, 0xad, 0x77, 0xb2, 0x6d, 0xb2,
  0x4a, 0xc5, 0xff, 0xff, 0x04, 0x00, 0x00, 0x00, 0x16, 0x00, 0x00, 0x00,
  0x17, 0xb4, 0xf4, 0xab, 0xfa, 0x2d, 0x6c, 0x27, 0x41, 0x2e, 0x02, 0xa9,
  0xc6, 0x25, 0xfe, 0x04, 0x1d, 0xb2, 0x1f, 0x29, 0x20, 0xb2, 0x00, 0x00,
  0x6e, 0xc5, 0xff, 0xff, 0x04, 0x00, 0x00, 0x00, 0x16, 0x00, 0x00, 0x00,
  0xcf, 0x30, 0x0e, 0x29, 0x41, 0x30, 0x2e, 0xaf, 0x93, 0x2e, 0x17, 0x34,
  0xef, 0xad, 0xa3, 0x31, 0x50, 0x20, 0x88, 0xa8, 0x3c, 0x2b, 0x00, 0x00,
  0x92, 0xc5, 0xff, 0xff, 0x04, 0x00, 0x00, 0x00, 0x34, 0x00, 0x00, 0x00,
  0xb7, 0xb1, 0x16, 0xa8, 0x25, 0x35, 0xf8, 0x37, 0x57, 0xb5, 0x99, 0xb1,
  0x81, 0xb5, 0xf5, 0xa5, 0x1d, 0x34, 0xbd, 0xa7, 0xa9, 0x2e, 0x2e, 0x38,
  0x8a, 0xb2, 0x2d, 0xb1, 0xfe, 0xb3, 0xae, 0x30, 0xd7, 0xac, 0x5c, 0xb2,
  0x7e, 0x37, 0x91, 0x2e, 0x82, 0x34, 0xa6, 0x36, 0xc8, 0xb5, 0xc3, 0x2b,
  0xf2, 0xb5, 0x59, 0xb5, 0xd2, 0xc5, 0xff, 0xff, 0x04, 0x00, 0x00, 0x00,
  0x0c, 0x00, 0x00, 0x00, 0xff, 0xff, 0xff, 0xff, 0x0a, 0x00, 0x00, 0x00,
  0x2c, 0x00, 0x00, 0x00, 0xea, 0xc5, 0xff, 0xff, 0x04, 0x00, 0x00, 0x00,
  0x0c, 0x00, 0x00, 0x00, 0xff, 0xff, 0xff, 0xff, 0x0a, 0x00, 0x00, 0x00,
  0x16, 0x00, 0x00, 0x00, 0x02, 0xc6, 0xff, 0xff, 0x04, 0x00, 0x00, 0x00,
  0x0c, 0x00, 0x00, 0x00, 0xff, 0xff, 0xff, 0xff, 0x14, 0x00, 0x00, 0x00,
  0x16, 0x00, 0x00, 0x00, 0x1a, 0xc6, 0xff, 0xff, 0x04, 0x00, 0x00, 0x00,
  0x0c, 0x00, 0x00, 0x00, 0xff, 0xff, 0xff, 0xff, 0x14, 0x00, 0x00, 0x00,
  0x0b, 0x00, 0x00, 0x00, 0x32, 0xc6, 0xff, 0xff, 0x04, 0x00, 0x00, 0x00,
  0x0c, 0x00, 0x00, 0x00, 0xff, 0xff, 0xff, 0xff, 0x28, 0x00, 0x00, 0x00,
  0x0b, 0x00, 0x00, 0x00, 0x4a, 0xc6, 0xff, 0xff, 0x04, 0x00, 0x00, 0x00,
  0xb0, 0x16, 0x00, 0x00, 0x3d, 0x28, 0xea, 0xb0, 0x4a, 0x2f, 0xab, 0xa4,
  0x01, 0x29, 0x31, 0x2e, 0x9d, 0x30, 0x36, 0x2e, 0x9f, 0x32, 0xfb, 0x30,
  0x0a, 0xae, 0x50, 0xb2, 0x08, 0x30, 0x82, 0xa3, 0x5f, 0x2d, 0xb5, 0x2c,
  0x07, 0xb1, 0xb6, 0x25, 0x54, 0x2c, 0x23, 0xb1, 0x50, 0x34, 0x47, 0xad,
  0x81, 0xad, 0x5b, 0xb0, 0x06, 0xb2, 0x83, 0xa8, 0xa6, 0x2a, 0xee, 0x2c,
  0x1f, 0x28, 0x2e, 0xae, 0xf1, 0xa9, 0x7d, 0x28, 0xb9, 0xb0, 0xc9, 0xb0,
  0x3c, 0xac, 0xae, 0xb2, 0x0e, 0x33, 0xef, 0x2f, 0x87, 0x23, 0x2a, 0xb2,
  0xf5, 0xae, 0xbe, 0xb4, 0x35, 0x34, 0x90, 0xb3, 0xc0, 0xad, 0x43, 0x25,
  0xfd, 0x1f, 0xeb, 0x2e, 0xa0, 0x2f, 0xac, 0x30, 0x9a, 0x30, 0xce, 0xa9,
  0x7c, 0xa4, 0xe8, 0xa4, 0xa5, 0xb4, 0x06, 0x29, 0xe6, 0x30, 0x2d, 0x32,
  0xc0, 0x34, 0x73, 0x2d, 0x91, 0x30, 0xd5, 0xae, 0xb4, 0x28, 0x7b, 0x35,
  0xae, 0x30, 0xd0, 0xad, 0x1d, 0xb2, 0x68, 0x2d, 0x3a, 0xaf, 0x49, 0x29,
  0x45, 0x30, 0x26, 0x32, 0x5d, 0x2f, 0x84, 0x24, 0x6c, 0x2a, 0xf7, 0x2d,
  0x3b, 0xb8, 0xbb, 0xa4, 0xf0, 0x29, 0xfb, 0x34, 0x6f, 0xa1, 0x4e, 0xaf,
  0x0b, 0x2c, 0x3d, 0x2d, 0x1b, 0xa7, 0xf1, 0x36, 0xd9, 0xa8, 0x4f, 0xb1,
  0x5c, 0xb6, 0x4e, 0xb1, 0x42, 0xa9, 0x14, 0x8b, 0xf7, 0xb0, 0x10, 0xb0,
  0x28, 0x32, 0x7d, 0xb2, 0xac, 0xaf, 0x25, 0xa5, 0xe3, 0xb8, 0x75, 0x2a,
  0x48, 0xb0, 0xb4, 0x31, 0xed, 0xb2, 0x44, 0xb3, 0x2e, 0xb2, 0xb3, 0x31,
  0xe0, 0x2c, 0xe3, 0x34, 0xaa, 0xaf, 0x91, 0x2a, 0xbd, 0xb4, 0x55, 0xb3,
  0x2d, 0x2d, 0xb8, 0xa9, 0xce, 0xb3, 0x38, 0xb2, 0xb2, 0x33, 0x66, 0xb2,
  0x08, 0xb5, 0x84, 0x2c, 0xa3, 0xb1, 0xa8, 0xb3, 0x9b, 0x2d, 0xe0, 0x32,
  0xdb, 0xaf, 0x74, 0xb6, 0x3c, 0xb6, 0x73, 0x34, 0x0b, 0xab, 0xf4, 0xa7,
  0x87, 0xad, 0x1d, 0x2d, 0xe5, 0x29, 0xff, 0xa9, 0xcd, 0xa4, 0xb2, 0xa8,
  0x6d, 0x35, 0x4d, 0x2c, 0x07, 0xb2, 0xfa, 0x2e, 0x2b, 0x2f, 0xef, 0xb2,
  0x2c, 0xaa, 0x2b, 0xa8, 0x2b, 0xae, 0x97, 0xb0, 0x85, 0xab, 0x7b, 0xb4,
  0x06, 0xa9, 0x59, 0xac, 0x17, 0xb5, 0x46, 0xb2, 0x6d, 0xae, 0xae, 0xb0,
  0xcf, 0xa0, 0x29, 0x2f, 0x0f, 0xac, 0x62, 0x28, 0x66, 0x33, 0xd3, 0x31,
  0xf2, 0xb5, 0x5e, 0x28, 0xc9, 0xb1, 0xb2, 0xb7, 0x2a, 0x30, 0x05, 0xb4,
  0x92, 0xb5, 0xc7, 0xae, 0x6c, 0xad, 0x47, 0x28, 0x00, 0x30, 0x17, 0xb2,
  0xb5, 0xb0, 0x02, 0x2e, 0xa5, 0x2d, 0x57, 0xb1, 0xbd, 0xb4, 0xba, 0x29,
  0x46, 0x30, 0xb5, 0x33, 0x36, 0xa7, 0x40, 0xb0, 0x24, 0xb1, 0xfb, 0xae,
  0x76, 0x27, 0xa6, 0xb1, 0xfe, 0x2e, 0x1e, 0x2b, 0x88, 0xb3, 0x41, 0x2f,
  0x20, 0x2d, 0x29, 0xad, 0x46, 0xae, 0x0d, 0xac, 0xdb, 0xa5, 0xf3, 0x35,
  0x59, 0x16, 0x69, 0xb4, 0xbb, 0x30, 0xaa, 0xb1, 0x46, 0x9e, 0x00, 0xb3,
  0xac, 0x30, 0xfe, 0x2a, 0x28, 0xb5, 0x33, 0x2d, 0x18, 0x34, 0xcb, 0x33,
  0x5b, 0xb2, 0x12, 0x33, 0xd2, 0xac, 0xed, 0x2d, 0x4d, 0x32, 0xb9, 0xa9,
  0x10, 0x2b, 0x3a, 0xae, 0x3b, 0xb3, 0x57, 0xad, 0xd5, 0x31, 0xa4, 0xb4,
  0xe1, 0x31, 0x7b, 0xb4, 0x9b, 0xa6, 0xd5, 0x31, 0xf9, 0x2f, 0xe3, 0xa7,
  0xed, 0xb3, 0xa4, 0x2b, 0xc2, 0x30, 0x17, 0xad, 0xc9, 0xaf, 0xe0, 0x2f,
  0x76, 0xb1, 0x63, 0xa7, 0x8f, 0xa5, 0xa2, 0xae, 0x91, 0xaa, 0x80, 0xac,
  0x73, 0xac, 0x18, 0xb2, 0x96, 0xa7, 0x53, 0xad, 0x73, 0x2d, 0x4f, 0xb6,
  0xda, 0x2f, 0x77, 0x35, 0xe9, 0xa9, 0x00, 0xaf, 0x97, 0x33, 0x0f, 0xa5,
  0x04, 0x2d, 0x34, 0x30, 0x8e, 0xb9, 0xd5, 0x26, 0x7b, 0xaa, 0x16, 0x2b,
  0xab, 0x2d, 0xc0, 0xaf, 0x53, 0xb2, 0x0b, 0x25, 0x7c, 0x2c, 0x2c, 0xaf,
  0x6d, 0xb2, 0x50, 0x2f, 0x89, 0x2a, 0x45, 0x25, 0x4e, 0xb5, 0xf3, 0xb2,
  0x27, 0xaa, 0x2c, 0x31, 0x88, 0xae, 0xa3, 0x1e, 0x78, 0xaf, 0x2d, 0xb0,
  0x13, 0x33, 0x9b, 0xb0, 0xfc, 0x2e, 0x96, 0xab, 0xd6, 0x31, 0xd9, 0x2e,
  0x94, 0x30, 0x5c, 0xb0, 0x3a, 0x31, 0x46, 0x31, 0xa4, 0x29, 0xd7, 0x32,
  0x7c, 0x2c, 0x01, 0x9b, 0xbc, 0xb2, 0x28, 0xb2, 0x1b, 0x2f, 0xd5, 0x30,
  0xa4, 0x1f, 0xd9, 0x2a, 0x6b, 0xaa, 0x2c, 0xb2, 0xab, 0x2d, 0xc7, 0xb2,
  0x91, 0x27, 0xe3, 0xaf, 0xc8, 0xb0, 0xee, 0x2f, 0xf7, 0x2a, 0x50, 0x2a,
  0xb1, 0x27, 0xf0, 0x2d, 0x29, 0xab, 0x4e, 0x28, 0x5b, 0xa2, 0x93, 0xa5,
  0xbc, 0xb2, 0x2a, 0xb7, 0xbf, 0x29, 0xcb, 0xac, 0x71, 0xb2, 0x1f, 0x1d,
  0x8a, 0xb2, 0xb0, 0xb0, 0x06, 0x33, 0xde, 0xaf, 0xac, 0xa3, 0x85, 0x30,
  0x19, 0x2a, 0x31, 0x32, 0xaf, 0x2d, 0xb2, 0x22, 0x46, 0xa8, 0xd3, 0x30,
  0x03, 0x30, 0x9f, 0x29, 0x61, 0xa8, 0x79, 0x30, 0xaf, 0xb3, 0x66, 0xb0,
  0x30, 0x33, 0x22, 0x2b, 0x84, 0xb3, 0x96, 0xb1, 0xd2, 0xb4, 0x74, 0xad,
  0x63, 0x32, 0x20, 0xaf, 0xea, 0xb2, 0xbf, 0x2d, 0xa8, 0x31, 0xbb, 0x31,
  0x26, 0x31, 0x9b, 0xb4, 0x13, 0x9e, 0x1e, 0x32, 0x17, 0x30, 0x04, 0xb1,
  0xc0, 0x2a, 0x13, 0x24, 0x51, 0xb2, 0x6b, 0x1f, 0x7b, 0x26, 0xc8, 0x2c,
  0x35, 0xb0, 0x64, 0xaf, 0xad, 0xb4, 0xff, 0xac, 0x80, 0x30, 0x91, 0x2c,
  0xf8, 0xb3, 0x1a, 0x33, 0xca, 0x31, 0xbc, 0x1c, 0x42, 0x32, 0x13, 0x9c,
  0x30, 0x30, 0x91, 0x34, 0x42, 0x2c, 0xc2, 0xb6, 0xc4, 0xb0, 0x03, 0x2e,
  0x96, 0x19, 0x87, 0xa9, 0xdc, 0x2d, 0x15, 0x22, 0xb2, 0x30, 0xb9, 0xa4,
  0x6a, 0xa6, 0x3b, 0x28, 0xc7, 0x1e, 0x57, 0x30, 0x93, 0xae, 0x24, 0x31,
  0x30, 0xa7, 0xb5, 0xa5, 0xba, 0x30, 0xb0, 0xb1, 0x37, 0x22, 0x6a, 0x34,
  0x9f, 0xb1, 0x22, 0xb6, 0x02, 0x2c, 0xab, 0x30, 0xa3, 0x26, 0x3c, 0x35,
  0xf0, 0x30, 0x16, 0x2e, 0x51, 0x2d, 0xf7, 0xa4, 0x23, 0xb0, 0xd9, 0x9c,
  0xf8, 0xb6, 0x49, 0xb4, 0xfd, 0x29, 0x06, 0xad, 0x63, 0x30, 0x36, 0xb3,
  0xd3, 0xa3, 0xa8, 0xae, 0x88, 0xab, 0xbc, 0xab, 0x77, 0x34, 0x84, 0x29,
  0xf4, 0xa8, 0x10, 0x30, 0xd1, 0xb0, 0x2e, 0x32, 0x47, 0x2e, 0xee, 0xaf,
  0x19, 0x28, 0xb6, 0xb0, 0xb4, 0xb3, 0x11, 0x2b, 0x86, 0xb4, 0x13, 0xa4,
  0xb6, 0x98, 0x5d, 0xb1, 0xc2, 0x2f, 0xeb, 0xa4, 0x8e, 0xa4, 0xfd, 0xb2,
  0x56, 0x9c, 0x7b, 0xb0, 0x81, 0x32, 0x2c, 0x30, 0xc5, 0x32, 0x38, 0xa9,
  0xcf, 0xb2, 0x20, 0x34, 0xba, 0x2c, 0xbe, 0x29, 0xb9, 0x28, 0xed, 0xb2,
  0x33, 0xb3, 0x60, 0xad, 0xcd, 0xa7, 0x89, 0xa5, 0x68, 0x2c, 0xa8, 0xaf,
  0xe8, 0x23, 0x2f, 0xb5, 0x6a, 0x2c, 0x30, 0xb2, 0x78, 0xb1, 0xeb, 0xb2,
  0x98, 0x33, 0x91, 0x2c, 0xde, 0xaa, 0x9a, 0x2f, 0xeb, 0x26, 0x1f, 0xb5,
  0x56, 0xb3, 0xb1, 0x16, 0x58, 0xb5, 0x23, 0xa8, 0xb9, 0x2b, 0x33, 0x30,
  0xcb, 0x33, 0xeb, 0x2e, 0xc8, 0x29, 0xda, 0xab, 0x91, 0xa9, 0x61, 0xac,
  0x2d, 0xb1, 0x59, 0x2c, 0x25, 0xb5, 0xfe, 0xa8, 0x09, 0xa9, 0xda, 0x31,
  0x1f, 0xaa, 0x8d, 0x28, 0x82, 0xb2, 0xa1, 0xb7, 0xf2, 0x2a, 0xbf, 0xab,
  0x43, 0xb5, 0xa8, 0x2e, 0x37, 0xb0, 0xc6, 0xaa, 0x37, 0x37, 0x93, 0x30,
  0xb4, 0x2e, 0x61, 0x2d, 0x56, 0xa0, 0x2b, 0xa8, 0x44, 0xab, 0xd3, 0xaa,
  0x4c, 0xb4, 0x61, 0xb4, 0x1e, 0xb1, 0x1d, 0x34, 0x5f, 0xb1, 0x18, 0x30,
  0x35, 0xb4, 0xef, 0xb0, 0x21, 0x2b, 0x6e, 0x21, 0x2d, 0xae, 0x93, 0xad,
  0x8f, 0xb3, 0xd9, 0xa9, 0x1e, 0x34, 0xf2, 0x2b, 0x5c, 0x31, 0xb6, 0x30,
  0xed, 0xa1, 0x21, 0xa9, 0x2e, 0x22, 0x7b, 0xb1, 0x0b, 0xb3, 0x8f, 0xaf,
  0x9d, 0x2c, 0x27, 0x2a, 0x2b, 0xb0, 0x45, 0x31, 0xa3, 0x33, 0x0c, 0x31,
  0xfe, 0xa8, 0xd5, 0x2f, 0x6a, 0x2f, 0x35, 0x30, 0x07, 0x2e, 0x7f, 0xae,
  0xc7, 0xad, 0xc2, 0xa4, 0x79, 0x2e, 0xe8, 0x2a, 0x99, 0xaf, 0xc1, 0xa1,
  0xc3, 0xab, 0x58, 0x31, 0xe2, 0xaf, 0xde, 0x2b, 0x92, 0xaa, 0x10, 0x29,
  0x5b, 0xb3, 0x5d, 0xb2, 0x18, 0x27, 0x47, 0x2d, 0x7f, 0xb1, 0xbe, 0xb2,
  0x3c, 0xb0, 0xb6, 0x30, 0x6e, 0xa8, 0x68, 0xb0, 0x2b, 0x2e, 0xd7, 0xad,
  0x40, 0x2e, 0xba, 0x2d, 0x08, 0xb4, 0xce, 0x23, 0x53, 0xb2, 0xbb, 0x2c,
  0x98, 0xab, 0xe6, 0x30, 0x3a, 0xb1, 0x9d, 0x30, 0x2f, 0xb3, 0xf1, 0xb2,
  0x02, 0xb1, 0x80, 0xb3, 0x8e, 0xa2, 0xb4, 0x24, 0xc9, 0x28, 0xa9, 0x9c,
  0x6d, 0x2e, 0xc8, 0xa3, 0x22, 0xb0, 0x80, 0x30, 0xdc, 0xa4, 0xbf, 0x29,
  0x15, 0xb5, 0x72, 0xb2, 0xbc, 0xb0, 0x00, 0x28, 0x5b, 0xab, 0x3d, 0x29,
  0xae, 0xb1, 0x74, 0x30, 0xd9, 0xb4, 0x74, 0x30, 0x75, 0xa4, 0x30, 0x99,
  0x11, 0xb2, 0xed, 0x2d, 0xb2, 0xad, 0x73, 0x30, 0x4c, 0x23, 0x60, 0x2f,
  0x31, 0xb1, 0xd5, 0x32, 0x3d, 0x2c, 0x92, 0x2e, 0x86, 0xb2, 0xfa, 0xad,
  0xc1, 0xb0, 0x8f, 0x2e, 0x2a, 0x2c, 0xb4, 0x30, 0xa8, 0x1a, 0xd2, 0xb1,
  0xa1, 0xb3, 0xd6, 0x28, 0xb4, 0xb1, 0x40, 0xb3, 0xd7, 0xb4, 0x4c, 0xae,
  0x0b, 0xb5, 0x23, 0x31, 0x26, 0xb1, 0x0a, 0x2d, 0x47, 0x35, 0x3a, 0x23,
  0xba, 0x30, 0x7e, 0x2b, 0x46, 0xb4, 0x4b, 0xad, 0x4a, 0xb5, 0xa6, 0x30,
  0xee, 0xae, 0x9b, 0x27, 0x59, 0xac, 0x18, 0x28, 0xe5, 0xa9, 0x7a, 0xad,
  0x02, 0xb1, 0x46, 0xb4, 0x11, 0x2a, 0xea, 0xa9, 0xd8, 0xb3, 0x51, 0x23,
  0x08, 0xb3, 0xcd, 0x33, 0xe5, 0x35, 0xbf, 0xad, 0x9f, 0xa6, 0xb8, 0x2a,
  0x3d, 0x2d, 0x18, 0x29, 0xdb, 0x31, 0x3a, 0xa4, 0x13, 0xa6, 0x6e, 0xb4,
  0x5f, 0x2e, 0x46, 0x34, 0x99, 0x2e, 0xbd, 0x28, 0x1d, 0xb5, 0xf6, 0xb7,
  0x25, 0xaf, 0xf5, 0xaf, 0xf0, 0xb0, 0x0a, 0xae, 0xb1, 0xb5, 0x08, 0xa9,
  0x73, 0x31, 0x22, 0x32, 0x2e, 0x31, 0xe7, 0x32, 0xf0, 0x2e, 0x0c, 0x30,
  0x46, 0x2f, 0x4f, 0xb4, 0x6a, 0x30, 0x88, 0x27, 0x41, 0x2f, 0x7d, 0x2a,
  0x05, 0xa3, 0x1f, 0xa1, 0x34, 0xb4, 0x29, 0xb3, 0xd1, 0xa9, 0x14, 0x30,
  0xfc, 0x28, 0x7f, 0xa6, 0x9c, 0xb4, 0x07, 0x30, 0x52, 0x2d, 0x36, 0x2c,
  0x70, 0x2d, 0x41, 0x2f, 0xb4, 0xa6, 0x8c, 0x2c, 0xbb, 0x31, 0x17, 0xb1,
  0xdb, 0xac, 0x11, 0x2e, 0x61, 0x30, 0xab, 0x30, 0x95, 0xb2, 0x45, 0x2a,
  0xbc, 0xb4, 0xd8, 0xb5, 0xd1, 0x2c, 0xc9, 0xa8, 0x34, 0x30, 0x20, 0xae,
  0x3c, 0xb1, 0x4a, 0xad, 0x85, 0x30, 0x08, 0x32, 0x41, 0x93, 0x63, 0x34,
  0xa5, 0x30, 0x51, 0x2f, 0xc9, 0x2d, 0xd0, 0xb2, 0x06, 0xb1, 0x79, 0x32,
  0x5b, 0x24, 0x37, 0x2d, 0xc2, 0x2d, 0xaf, 0xa6, 0xda, 0xb4, 0xa6, 0xb1,
  0x10, 0xa2, 0x4a, 0xad, 0xec, 0xa8, 0xa3, 0x18, 0xec, 0x2d, 0xb4, 0x32,
  0xdf, 0x2f, 0xd5, 0x34, 0xe4, 0x31, 0x1e, 0x35, 0xf9, 0xa3, 0x72, 0x2f,
  0xf4, 0x9f, 0x50, 0xb4, 0x85, 0x30, 0xae, 0x2d, 0x31, 0xb4, 0xec, 0x1c,
  0x69, 0x2d, 0x9b, 0xb0, 0xab, 0xae, 0xa5, 0xa9, 0x7a, 0x28, 0xa2, 0x2f,
  0xe8, 0xae, 0x2a, 0x28, 0xfa, 0xa6, 0x12, 0xa9, 0xfb, 0xa4, 0x31, 0x31,
  0x84, 0xa7, 0xc4, 0x34, 0x28, 0x21, 0xe4, 0xaf, 0xb7, 0x2d, 0x48, 0xb0,
  0x8c, 0xae, 0x1c, 0x2e, 0x8b, 0xb4, 0x09, 0xb6, 0xa7, 0xa8, 0x94, 0xb4,
  0x99, 0xb3, 0xaa, 0x29, 0x1f, 0x25, 0xc4, 0x2c, 0x97, 0xae, 0x65, 0xad,
  0xbe, 0x2d, 0x1c, 0x2a, 0x6a, 0xb8, 0x69, 0x31, 0x49, 0xac, 0xe6, 0x30,
  0xfc, 0xad, 0xc4, 0xb0, 0xf5, 0xa5, 0x53, 0x26, 0x7b, 0xae, 0x04, 0xac,
  0xc7, 0xb4, 0x21, 0xa9, 0x38, 0x36, 0x37, 0xb0, 0xfc, 0xb2, 0xe3, 0x2d,
  0xdf, 0xa7, 0x46, 0xaf, 0x9c, 0x2e, 0xf2, 0x2f, 0xf1, 0xaf, 0x61, 0x26,
  0x4b, 0x2e, 0x7f, 0x24, 0xbb, 0x96, 0x8c, 0x20, 0xfe, 0x31, 0xb1, 0x2d,
  0xd6, 0x2d, 0x38, 0xb4, 0xbd, 0x30, 0xfe, 0xaf, 0x1c, 0xaa, 0xed, 0xa9,
  0x5b, 0x36, 0x77, 0xae, 0xb3, 0x2e, 0x47, 0xb0, 0x92, 0xa9, 0xa4, 0xaf,
  0xf9, 0x2e, 0x48, 0xab, 0x2a, 0x28, 0x9f, 0x1c, 0x72, 0x2e, 0xa5, 0x2d,
  0x30, 0xad, 0xfb, 0x2b, 0xf4, 0x2f, 0x79, 0x2e, 0x32, 0x28, 0x72, 0xb2,
  0xa3, 0x31, 0x98, 0xac, 0x7a, 0xb4, 0x74, 0x31, 0x0f, 0x34, 0x7b, 0xb3,
  0x02, 0x31, 0x49, 0xb3, 0x69, 0xb5, 0x83, 0xab, 0xc1, 0xa6, 0xc9, 0xae,
  0x48, 0x2d, 0xc2, 0xae, 0x76, 0x2c, 0x69, 0x30, 0xaf, 0xaa, 0x29, 0x2d,
  0x64, 0x24, 0x83, 0xae, 0xbb, 0xb4, 0xf2, 0xac, 0xe1, 0x2c, 0x69, 0xac,
  0xfc, 0xb4, 0xbc, 0xb0, 0x64, 0xb3, 0x00, 0xae, 0x70, 0x26, 0xe6, 0xad,
  0x6c, 0xac, 0xfe, 0x32, 0x49, 0xb4, 0xf4, 0x31, 0x24, 0x2f, 0xce, 0x22,
  0xb8, 0xa7, 0x4d, 0x34, 0x59, 0x30, 0x8e, 0x35, 0xef, 0xb2, 0xe6, 0xb4,
  0xb1, 0x31, 0x5f, 0x2d, 0x07, 0xb6, 0x40, 0x31, 0x65, 0xb5, 0x9a, 0xa9,
  0x1b, 0xb3, 0x73, 0xb0, 0x1f, 0xaa, 0x08, 0x29, 0x49, 0xb1, 0x4a, 0x30,
  0x09, 0xb4, 0x9e, 0xab, 0x7b, 0xac, 0xa2, 0xa8, 0xcc, 0x2c, 0x90, 0x2b,
  0x78, 0x26, 0x09, 0x34, 0x22, 0xb3, 0x22, 0xa8, 0x6b, 0xa6, 0xf9, 0x1a,
  0xfa, 0xb1, 0x3c, 0x30, 0x41, 0xb7, 0x82, 0xaf, 0xec, 0xae, 0xc4, 0xb7,
  0xad, 0xad, 0x51, 0xb2, 0xaa, 0xb5, 0xc2, 0xb3, 0xcd, 0x20, 0xa6, 0xac,
  0x4d, 0xb2, 0x0e, 0x31, 0xff, 0x31, 0xb5, 0x29, 0xde, 0x25, 0xf3, 0x32,
  0x5a, 0x98, 0x9a, 0x30, 0x22, 0xb4, 0x2b, 0x2c, 0x7a, 0x31, 0x2d, 0x33,
  0xc1, 0xb8, 0x43, 0x31, 0x5f, 0x36, 0x9e, 0xae, 0xfc, 0x2c, 0xbe, 0x2f,
  0x1b, 0xab, 0xa6, 0xad, 0x7b, 0x2a, 0x73, 0x2e, 0xd0, 0x34, 0xff, 0xa4,
  0xac, 0xaa, 0x5b, 0x31, 0xef, 0x9e, 0xb7, 0x2d, 0x2b, 0x26, 0x35, 0x32,
  0xb1, 0x2b, 0x42, 0xad, 0x99, 0x31, 0x1f, 0xa9, 0x2b, 0xa2, 0x5a, 0xb3,
  0xe3, 0x33, 0x52, 0xab, 0xf6, 0x2c, 0x4f, 0x29, 0xec, 0xa9, 0xb9, 0x9e,
  0x3b, 0xa2, 0x04, 0xb0, 0xde, 0x32, 0x2c, 0xb0, 0xd1, 0xad, 0xc3, 0xa8,
  0x2a, 0xb2, 0x34, 0x2c, 0xee, 0xac, 0xf4, 0x2f, 0xfe, 0x9d, 0xb3, 0x26,
  0x80, 0x28, 0xa6, 0x2d, 0x08, 0xb1, 0x97, 0xb4, 0x9d, 0x30, 0xac, 0xae,
  0x0d, 0x30, 0x18, 0x34, 0x3e, 0xaf, 0x6d, 0xac, 0x5e, 0xa1, 0xe6, 0xad,
  0xc5, 0x2e, 0x9d, 0xb4, 0x31, 0xb4, 0xcc, 0xac, 0x24, 0xb3, 0xa3, 0x28,
  0x32, 0xb0, 0xb5, 0x31, 0xff, 0xb0, 0x6b, 0xb0, 0x81, 0x33, 0xbe, 0xa5,
  0xaa, 0xaf, 0x88, 0xb3, 0x20, 0xb3, 0xf6, 0xaf, 0x73, 0x32, 0x02, 0xb4,
  0x39, 0xb3, 0x9a, 0xa8, 0x8e, 0x31, 0xb5, 0xa7, 0x3f, 0x27, 0xba, 0xad,
  0x12, 0x31, 0xba, 0xb0, 0x65, 0xaf, 0x26, 0xac, 0xe1, 0xb0, 0x02, 0x30,
  0x8a, 0xaf, 0xaf, 0x31, 0x62, 0x2f, 0x55, 0x2f, 0x6d, 0xb2, 0xdf, 0x2d,
  0x36, 0xb5, 0xa3, 0xae, 0x46, 0xb3, 0x7d, 0xb3, 0x8b, 0xae, 0x39, 0xac,
  0xa1, 0x2a, 0x22, 0x29, 0xcb, 0xab, 0x61, 0x31, 0xba, 0x2c, 0xc1, 0x2b,
  0x66, 0x29, 0x2a, 0xaa, 0x91, 0xa5, 0x77, 0xa8, 0x5d, 0xad, 0x9c, 0x32,
  0xf4, 0x2f, 0xa2, 0xaa, 0x4d, 0xa8, 0x5f, 0x32, 0x8e, 0xac, 0x30, 0xb1,
  0x2c, 0xb3, 0xa9, 0xb4, 0x8b, 0xb4, 0x55, 0x29, 0xed, 0x32, 0x4e, 0xac,
  0xca, 0xb1, 0xf9, 0x34, 0xd8, 0x30, 0xc9, 0x30, 0x0c, 0x30, 0x7c, 0x30,
  0x6a, 0xac, 0xf3, 0x2c, 0xba, 0xac, 0x27, 0x34, 0x09, 0x34, 0xc7, 0xa7,
  0x95, 0xab, 0xfb, 0x35, 0x38, 0xae, 0xd9, 0xaa, 0x7d, 0xa7, 0xf7, 0xa9,
  0x55, 0x21, 0xb2, 0x2b, 0xee, 0xa0, 0xb4, 0x23, 0x99, 0x2f, 0x70, 0x35,
  0x29, 0xb1, 0x66, 0x2a, 0x30, 0x31, 0x63, 0x32, 0x54, 0xa0, 0x66, 0xa4,
  0x78, 0x2d, 0xb9, 0x33, 0xef, 0xad, 0x32, 0xa7, 0xe4, 0xad, 0xbe, 0x28,
  0x66, 0xb7, 0x0c, 0xaa, 0x1b, 0xb0, 0xa5, 0xb1, 0x96, 0xaa, 0x21, 0x24,
  0x8f, 0x2e, 0x21, 0x88, 0xec, 0x9a, 0x15, 0x34, 0x1e, 0xb4, 0xf3, 0xa8,
  0x3c, 0x19, 0xaa, 0x33, 0xcc, 0xb1, 0x66, 0x9c, 0x11, 0x31, 0x5d, 0x31,
  0x2c, 0xa6, 0x63, 0x2a, 0xac, 0xa8, 0x52, 0x32, 0xda, 0xb7, 0xe1, 0xad,
  0xaf, 0xaf, 0xc0, 0x2f, 0x7a, 0xb2, 0x7d, 0x2d, 0x89, 0x33, 0x82, 0xb4,
  0x4f, 0xb5, 0x2f, 0xaa, 0x60, 0xb4, 0xfd, 0x28, 0xc8, 0xad, 0xb9, 0x33,
  0x6e, 0xaf, 0x98, 0xae, 0xfd, 0xae, 0xf1, 0x31, 0x99, 0xaf, 0xdd, 0x2a,
  0x56, 0xb3, 0x2d, 0x34, 0xd3, 0xad, 0xdd, 0x2e, 0x40, 0xb1, 0xf9, 0xa4,
  0x85, 0xac, 0x81, 0xa0, 0xf8, 0x33, 0xa4, 0xb0, 0xa6, 0xb0, 0xd6, 0x30,
  0x1e, 0x32, 0x6e, 0xb1, 0x80, 0x30, 0x9f, 0x2a, 0x29, 0x31, 0x73, 0x2f,
  0x74, 0x27, 0x4c, 0xa1, 0xc5, 0x29, 0xca, 0x30, 0x29, 0x30, 0x1f, 0xad,
  0x2a, 0xb4, 0xe2, 0x2e, 0xc8, 0xb1, 0x57, 0x9c, 0x90, 0x2f, 0x4b, 0xa9,
  0x37, 0x28, 0x6d, 0xa2, 0x92, 0xb2, 0xeb, 0x9b, 0xbe, 0x2d, 0x87, 0x24,
  0x78, 0x2d, 0x03, 0x2e, 0x32, 0xb0, 0x81, 0x31, 0x7a, 0xb2, 0x2c, 0xa8,
  0xf0, 0xac, 0x94, 0xaa, 0x11, 0xad, 0x06, 0x28, 0xd9, 0xb2, 0x33, 0x2c,
  0xfd, 0xb4, 0x98, 0xb2, 0x47, 0x30, 0x9a, 0xac, 0x48, 0x29, 0xcc, 0xb2,
  0xef, 0xb8, 0x38, 0x30, 0x8d, 0x30, 0xe3, 0xa6, 0xf2, 0x30, 0x50, 0x31,
  0x76, 0x30, 0x85, 0x2c, 0x3b, 0xac, 0x89, 0xb2, 0x63, 0x2b, 0x9f, 0x2b,
  0x96, 0x32, 0x4a, 0xaf, 0x5a, 0xb5, 0x00, 0xb4, 0x1e, 0x2e, 0x85, 0xb2,
  0x94, 0xa2, 0x9e, 0xa4, 0xa7, 0xae, 0x8c, 0x19, 0x8c, 0x24, 0x63, 0xb0,
  0x44, 0x34, 0x4b, 0x30, 0xae, 0xad, 0xe1, 0x32, 0x7d, 0xac, 0x8d, 0xb5,
  0xd1, 0xb4, 0xab, 0x31, 0x71, 0xb5, 0xaf, 0xaa, 0xee, 0xae, 0xa4, 0x30,
  0x50, 0x32, 0xdb, 0xb3, 0xcf, 0xb3, 0xe4, 0xb3, 0xf7, 0x2c, 0xd5, 0xb3,
  0x4a, 0xa6, 0xa8, 0x9c, 0x63, 0xae, 0x70, 0xb0, 0x61, 0x37, 0x32, 0xa4,
  0x3a, 0x2d, 0x57, 0xa8, 0x27, 0xac, 0x20, 0xad, 0xf3, 0xb4, 0xc4, 0xb1,
  0x48, 0xa6, 0x22, 0xb6, 0xcb, 0xb1, 0x81, 0x34, 0xcc, 0xa1, 0x01, 0x30,
  0xd1, 0xb4, 0xd3, 0xb5, 0xc8, 0x2c, 0x14, 0xad, 0x18, 0x2a, 0x84, 0xa8,
  0x6a, 0xb1, 0x33, 0xaf, 0xa6, 0x34, 0xf0, 0xb0, 0xaa, 0x2d, 0x6e, 0xb1,
  0x99, 0x31, 0x36, 0x2d, 0x6d, 0x32, 0xe6, 0xb7, 0xcb, 0xa5, 0xd8, 0x29,
  0x78, 0x31, 0x0c, 0x31, 0x2c, 0x23, 0x87, 0xac, 0x19, 0x32, 0xc1, 0xac,
  0xc7, 0x30, 0x4e, 0x31, 0xc9, 0xab, 0xc4, 0x2e, 0x3b, 0x2a, 0xb0, 0xaf,
  0x0d, 0xb7, 0x80, 0xb1, 0x19, 0xae, 0x5c, 0xaa, 0x48, 0xac, 0xb5, 0xac,
  0xe8, 0x9e, 0x29, 0x29, 0x04, 0xb4, 0xc4, 0x2c, 0x74, 0x31, 0x92, 0x20,
  0xc9, 0xae, 0xe1, 0x2e, 0x60, 0x2c, 0xee, 0x2e, 0x19, 0x2d, 0xc9, 0x2e,
  0x48, 0x34, 0xfe, 0x30, 0x1d, 0xac, 0x53, 0xb1, 0x1b, 0xb7, 0x05, 0xae,
  0xb8, 0x23, 0x6f, 0x25, 0x6d, 0x2f, 0x14, 0xb4, 0x81, 0x9e, 0xe2, 0x25,
  0x0e, 0x2c, 0x21, 0x2d, 0xa6, 0x28, 0xa8, 0xa9, 0x5d, 0xad, 0x1d, 0x31,
  0x3c, 0x2b, 0x97, 0x30, 0xbb, 0x33, 0xc1, 0x30, 0x5b, 0x2f, 0xeb, 0x2c,
  0x3c, 0xb3, 0x55, 0xac, 0x30, 0xb6, 0x37, 0xb1, 0x47, 0xa2, 0x01, 0x28,
  0xd5, 0x32, 0x45, 0xad, 0xb6, 0x29, 0xd9, 0xa7, 0x34, 0xb0, 0x3f, 0xaf,
  0x4e, 0x34, 0x3e, 0xb4, 0xbc, 0x28, 0xcb, 0xb1, 0x67, 0xb4, 0x37, 0xb2,
  0x1b, 0xad, 0x93, 0xa8, 0xc0, 0x33, 0x75, 0x2d, 0x88, 0xaa, 0x16, 0x2c,
  0x2e, 0xb1, 0x08, 0x33, 0xea, 0xa9, 0x2a, 0x33, 0xbc, 0x30, 0x84, 0xb5,
  0xf2, 0x32, 0xb2, 0x22, 0x06, 0xb0, 0x05, 0x32, 0x34, 0x2c, 0x3c, 0x2e,
  0xca, 0x32, 0x6d, 0xb1, 0x90, 0xb2, 0x46, 0x32, 0x4f, 0xab, 0xe2, 0x2b,
  0x13, 0xa2, 0x71, 0x2d, 0xac, 0x29, 0x10, 0x2d, 0x18, 0x30, 0x08, 0x31,
  0x43, 0x9e, 0x8c, 0x2b, 0xe2, 0x2d, 0x28, 0xb8, 0x59, 0x32, 0x86, 0xac,
  0x7f, 0xb4, 0x7d, 0xab, 0x1e, 0xad, 0x47, 0x2b, 0xed, 0x2a, 0xfc, 0xae,
  0xd5, 0xac, 0x31, 0x34, 0xb7, 0xb0, 0x2b, 0x2f, 0x55, 0xb1, 0x4b, 0x2f,
  0xd0, 0xad, 0xc5, 0x2e, 0xf4, 0xab, 0x38, 0xae, 0xaa, 0x2a, 0xdd, 0xa6,
  0x82, 0x30, 0x48, 0xb6, 0x0b, 0x2a, 0x9e, 0xb3, 0x2d, 0xb6, 0x5b, 0xb0,
  0x55, 0xaf, 0x19, 0x2d, 0x6d, 0x26, 0xfb, 0x2e, 0x1d, 0xb0, 0xdf, 0x2e,
  0x73, 0x21, 0x14, 0x33, 0x7a, 0xb5, 0xf0, 0x2e, 0xd0, 0xac, 0xbe, 0x2d,
  0x07, 0xb3, 0xee, 0x2f, 0x35, 0x30, 0x90, 0x31, 0x5e, 0x32, 0x4b, 0xab,
  0x45, 0x31, 0x94, 0xaf, 0xc6, 0xa9, 0x25, 0x08, 0x5a, 0x1a, 0x00, 0xb1,
  0xf9, 0xad, 0x03, 0xae, 0x63, 0xac, 0xe5, 0xa8, 0x5e, 0x31, 0xdf, 0x9d,
  0xc3, 0xb1, 0x22, 0x2c, 0x9c, 0xac, 0xb9, 0x26, 0xc2, 0xa6, 0x46, 0x20,
  0xf1, 0xaa, 0xe9, 0x2f, 0xd4, 0x32, 0xe6, 0x2d, 0x7c, 0x31, 0xcf, 0xb5,
  0x9b, 0xac, 0x3d, 0x31, 0xcc, 0x2f, 0x8a, 0xb1, 0x21, 0x34, 0x5b, 0xb0,
  0xf2, 0x30, 0xa9, 0xb0, 0x4e, 0x22, 0x06, 0xaa, 0x40, 0xb4, 0xc8, 0x2f,
  0xd8, 0xad, 0xce, 0xa9, 0x1f, 0x2c, 0x2b, 0x2e, 0x3c, 0xb1, 0xbe, 0xa0,
  0xea, 0xaa, 0xbf, 0xb1, 0x53, 0x31, 0x54, 0xb6, 0x75, 0xac, 0xd2, 0x25,
  0xb8, 0x2d, 0xc2, 0xb4, 0xc6, 0xaf, 0x31, 0x32, 0x91, 0x2d, 0x55, 0x2c,
  0x3c, 0x2a, 0x11, 0x30, 0x06, 0x32, 0xbe, 0xa0, 0x97, 0xb4, 0x18, 0x18,
  0x33, 0x34, 0x8c, 0x28, 0xff, 0xb2, 0x43, 0xab, 0xbc, 0x30, 0xf5, 0x31,
  0x46, 0x31, 0xaf, 0xb1, 0x90, 0x31, 0x34, 0x2d, 0x66, 0x32, 0x7f, 0x32,
  0xed, 0xad, 0xdd, 0x2a, 0x77, 0x2a, 0x59, 0xac, 0x4a, 0x2b, 0xce, 0xae,
  0x8c, 0x32, 0xb6, 0x9f, 0x90, 0xb4, 0x68, 0xb3, 0x81, 0x9b, 0x89, 0xa8,
  0x3e, 0xa8, 0xcb, 0x13, 0x4c, 0x20, 0x98, 0xb0, 0xd9, 0xad, 0x89, 0xb2,
  0xe4, 0x2b, 0x8d, 0xaa, 0xd0, 0x28, 0xcf, 0xad, 0xda, 0x2b, 0x93, 0x2e,
  0x66, 0x2e, 0xf8, 0x28, 0xc2, 0x2e, 0x75, 0xa8, 0xf9, 0x31, 0xdf, 0xb4,
  0x21, 0xb4, 0x03, 0xac, 0x72, 0xb3, 0x1d, 0xb5, 0x8a, 0xa4, 0xc0, 0xa4,
  0x31, 0xae, 0x91, 0x26, 0xea, 0xb1, 0x60, 0xb4, 0x1e, 0x2f, 0x59, 0xac,
  0x84, 0x32, 0x19, 0xb3, 0xab, 0xb0, 0x9f, 0x2c, 0x09, 0x23, 0xe6, 0x1e,
  0x96, 0xb0, 0x5a, 0x2d, 0x97, 0x30, 0x27, 0xb1, 0x9f, 0xb2, 0x14, 0x2e,
  0xdf, 0x2f, 0x18, 0xab, 0xa4, 0x2f, 0x3b, 0xb5, 0xe6, 0xae, 0x3c, 0xae,
  0xa1, 0xb3, 0xe5, 0xae, 0x75, 0x32, 0x46, 0xb3, 0xaf, 0x30, 0xbb, 0x33,
  0x3d, 0x34, 0x98, 0x2c, 0x25, 0xa5, 0x16, 0xa6, 0x45, 0xac, 0x21, 0xb4,
  0x52, 0x32, 0xf3, 0xb3, 0x3e, 0xb6, 0xc3, 0xb0, 0xff, 0xa1, 0x65, 0xb4,
  0x3d, 0x25, 0xaa, 0xb4, 0xf8, 0x9e, 0xea, 0x30, 0xb4, 0xb1, 0xdf, 0x30,
  0x4f, 0x33, 0x70, 0xb4, 0xd1, 0xa9, 0x2b, 0x2c, 0x57, 0x2c, 0xc4, 0xb0,
  0x87, 0x2b, 0xdb, 0x2a, 0xb2, 0xb5, 0xd1, 0xb3, 0x8a, 0x2d, 0x02, 0xaf,
  0xbc, 0xb0, 0xd6, 0xb0, 0xd9, 0xab, 0x94, 0xb0, 0x2e, 0xb2, 0x20, 0xb4,
  0x23, 0xb2, 0x52, 0x2d, 0xc8, 0xb1, 0xaa, 0x31, 0x7c, 0x30, 0x16, 0xa6,
  0x22, 0x26, 0xfc, 0x30, 0x3c, 0x29, 0xe7, 0x30, 0xf6, 0x2d, 0xae, 0x34,
  0x56, 0x30, 0xe6, 0x30, 0xa9, 0x2a, 0x33, 0xb5, 0xae, 0x94, 0x28, 0xb0,
  0xcf, 0xb4, 0xe0, 0xb1, 0x7d, 0xb6, 0x91, 0xab, 0xd1, 0x2f, 0x59, 0x30,
  0xfa, 0xa8, 0xe6, 0x32, 0x5c, 0x25, 0xcc, 0x2a, 0x3d, 0x2e, 0x57, 0xa4,
  0x9d, 0x31, 0xcb, 0x1c, 0xec, 0x32, 0xe7, 0x32, 0xe0, 0x30, 0xab, 0x29,
  0xcc, 0x2c, 0x92, 0xac, 0x53, 0xaf, 0x3c, 0xa1, 0x74, 0xae, 0xac, 0xb1,
  0xf0, 0xb4, 0x4f, 0x2d, 0x72, 0xa3, 0xd1, 0x30, 0xb2, 0xa7, 0x6a, 0x2c,
  0xe5, 0x2e, 0xa8, 0xab, 0xf1, 0xab, 0xba, 0xb3, 0x3f, 0x2c, 0x74, 0x22,
  0xad, 0x29, 0x40, 0x28, 0x67, 0xaf, 0xf1, 0xb1, 0x24, 0x30, 0xf2, 0xb6,
  0xba, 0xb5, 0x57, 0xb3, 0x3a, 0xaa, 0x98, 0xb4, 0x0d, 0xb8, 0xfd, 0xa4,
  0x21, 0x21, 0xa0, 0x29, 0x38, 0xb2, 0xed, 0x2b, 0x34, 0x34, 0x7f, 0x9b,
  0x41, 0xb2, 0xfd, 0xad, 0x4f, 0x27, 0x0d, 0xae, 0x90, 0x2e, 0xd0, 0xb2,
  0x34, 0xa1, 0x22, 0x25, 0x1a, 0x2d, 0xd6, 0x2b, 0x6a, 0x32, 0xb9, 0xb4,
  0xc4, 0x33, 0xce, 0x2b, 0xd9, 0x20, 0xfa, 0x1b, 0xa0, 0xaf, 0xf1, 0x30,
  0x61, 0xad, 0x10, 0xab, 0x60, 0x30, 0x1f, 0xb1, 0xb0, 0xb2, 0xcb, 0x20,
  0xf5, 0x26, 0x59, 0xa4, 0x99, 0xaf, 0xdc, 0xb3, 0x1d, 0x28, 0xaf, 0x2e,
  0x97, 0xac, 0xf8, 0xaa, 0x73, 0x30, 0x3c, 0xae, 0x8d, 0x31, 0x19, 0xaf,
  0xe5, 0xa8, 0x26, 0xae, 0x27, 0xae, 0xd6, 0xa7, 0x2f, 0x31, 0x6a, 0xb1,
  0x3a, 0x30, 0x15, 0xaf, 0x80, 0xb0, 0xb6, 0xb0, 0xa0, 0x34, 0xed, 0x2b,
  0x44, 0x31, 0x88, 0xb1, 0xe0, 0x2d, 0x89, 0xad, 0xf1, 0x30, 0x69, 0xb0,
  0xfe, 0xa7, 0xf0, 0xb2, 0x3f, 0x33, 0xb5, 0xb3, 0x84, 0xb3, 0x4b, 0xae,
  0xb2, 0x33, 0x00, 0x2d, 0x72, 0x31, 0xd3, 0xb0, 0x42, 0x30, 0x9c, 0x31,
  0x9c, 0x1d, 0xeb, 0xb1, 0xa6, 0xb4, 0x2d, 0x30, 0x0b, 0xb1, 0x0d, 0xa1,
  0xae, 0x29, 0xbb, 0xb0, 0x85, 0x31, 0x26, 0xaf, 0x65, 0xb6, 0x55, 0x34,
  0xa8, 0x2b, 0x29, 0xae, 0xf6, 0x33, 0x09, 0x2e, 0xe5, 0x2d, 0x66, 0x33,
  0xf3, 0xae, 0x58, 0x32, 0x63, 0x31, 0x3d, 0xb4, 0xa1, 0x29, 0xac, 0x35,
  0x47, 0xb2, 0x16, 0x31, 0x74, 0xac, 0x60, 0x1d, 0x49, 0xb1, 0xde, 0xb3,
  0x7e, 0x30, 0x5f, 0xb0, 0xc3, 0xb8, 0x74, 0x30, 0xba, 0xa8, 0xbf, 0xb4,
  0x8a, 0x22, 0x87, 0xb6, 0xad, 0x93, 0x42, 0xae, 0x13, 0xb4, 0xa6, 0x2e,
  0x9b, 0x1f, 0x47, 0xab, 0x1a, 0xb0, 0xd5, 0x33, 0xf6, 0xa8, 0xd2, 0x2f,
  0x58, 0x26, 0xd8, 0x2e, 0x8b, 0xb4, 0x6f, 0xb3, 0xdd, 0x2a, 0x21, 0xb6,
  0x24, 0xb8, 0x82, 0xb4, 0xa6, 0xb1, 0x6e, 0xb8, 0x63, 0xb1, 0x6c, 0xb4,
  0xf8, 0xb3, 0x5a, 0xac, 0x7b, 0xb7, 0xdd, 0x9e, 0x88, 0x23, 0xb3, 0xb1,
  0xe2, 0xb0, 0x4a, 0x30, 0xe7, 0x2a, 0x16, 0xb1, 0x4c, 0x26, 0x18, 0xaf,
  0x1f, 0x33, 0xd2, 0x27, 0xee, 0xb2, 0x66, 0x31, 0xf5, 0x34, 0x6a, 0x2e,
  0xf3, 0xb6, 0x66, 0x33, 0x81, 0x21, 0x82, 0x30, 0xc7, 0x2c, 0x8f, 0xb1,
  0x39, 0x29, 0x67, 0xb4, 0xe3, 0x29, 0xd5, 0x1c, 0x73, 0xad, 0xa5, 0xb4,
  0xf5, 0x31, 0x6a, 0xb0, 0x68, 0xab, 0xeb, 0xa6, 0x0d, 0x35, 0xfe, 0x31,
  0xe6, 0xb1, 0x59, 0x30, 0xe9, 0x31, 0x7e, 0x2e, 0x46, 0xb6, 0x7f, 0x2b,
  0x55, 0xac, 0xfb, 0x2a, 0xc1, 0x2d, 0xdf, 0xb0, 0x53, 0x32, 0x4a, 0xb4,
  0xb3, 0xb5, 0x0e, 0xaa, 0xc1, 0xb0, 0x11, 0xb8, 0x2a, 0x28, 0xe7, 0xb2,
  0x3d, 0x30, 0x7a, 0x2f, 0x2d, 0x2d, 0x97, 0xa1, 0x51, 0xaa, 0xa7, 0x2a,
  0xa2, 0xa0, 0xe5, 0xab, 0x14, 0xb6, 0x6d, 0xae, 0x08, 0xa6, 0x22, 0xa1,
  0xb1, 0xa2, 0xd7, 0xb0, 0xeb, 0xad, 0x65, 0xac, 0x6f, 0xb0, 0xe7, 0x2c,
  0x8c, 0x26, 0x83, 0xb5, 0x48, 0x2f, 0x98, 0xa5, 0x14, 0x31, 0x5d, 0x31,
  0xb6, 0x31, 0x44, 0x27, 0x22, 0xa8, 0xfe, 0x32, 0x81, 0x2e, 0xa1, 0xb4,
  0x65, 0xb2, 0x1c, 0xb0, 0x76, 0xa9, 0xd5, 0xad, 0x86, 0x1b, 0x24, 0xb5,
  0xcd, 0x8d, 0x96, 0xb0, 0x50, 0xb1, 0xdf, 0x2e, 0x06, 0xad, 0xef, 0xb0,
  0xba, 0xaa, 0x7b, 0x2c, 0x2e, 0xaf, 0x46, 0x22, 0x27, 0x2e, 0x40, 0x31,
  0xfc, 0xab, 0x44, 0x32, 0x90, 0x2c, 0x82, 0xb2, 0x3c, 0xb4, 0x88, 0xa9,
  0x8a, 0x2a, 0xea, 0x2b, 0x2d, 0xa8, 0xf4, 0xb3, 0xeb, 0x31, 0x31, 0xaa,
  0xd1, 0xb7, 0xa4, 0xa8, 0xda, 0x28, 0xdc, 0xb5, 0x9c, 0xa4, 0xd4, 0x30,
  0x72, 0xae, 0xde, 0x32, 0xfc, 0x2d, 0xee, 0x2e, 0x99, 0xae, 0x69, 0x97,
  0x3f, 0x2b, 0x6c, 0x2d, 0xe1, 0xb7, 0xc0, 0xa8, 0x9c, 0x29, 0x90, 0x2c,
  0xee, 0xb0, 0xfe, 0xb3, 0xb1, 0x30, 0x27, 0xac, 0x8d, 0xb3, 0x26, 0x29,
  0x6f, 0xb1, 0x3d, 0xad, 0xe1, 0x2a, 0x04, 0x19, 0xe0, 0xb0, 0xa5, 0x33,
  0xf5, 0x33, 0x27, 0x2c, 0xec, 0x31, 0xe8, 0xa7, 0x27, 0xb4, 0x7c, 0xa8,
  0x3b, 0xaa, 0x98, 0xae, 0x9d, 0xb3, 0xc9, 0x30, 0x04, 0x31, 0xda, 0x2f,
  0x48, 0x2f, 0x35, 0xad, 0x62, 0x2b, 0x92, 0x24, 0xd9, 0x32, 0xa9, 0x22,
  0xc8, 0x31, 0x95, 0xa8, 0x5b, 0xab, 0x6a, 0x34, 0xe5, 0x21, 0x1b, 0xaf,
  0x67, 0x30, 0xa8, 0xb1, 0x4e, 0xb7, 0x28, 0xab, 0x39, 0xa0, 0x5e, 0x22,
  0xb0, 0xb3, 0x37, 0x2a, 0x65, 0x2d, 0xd5, 0x29, 0x03, 0x2e, 0x21, 0x17,
  0xb0, 0xa9, 0xe9, 0xb1, 0x18, 0x27, 0x50, 0x2a, 0x76, 0x29, 0xbc, 0xac,
  0x30, 0xaa, 0xcc, 0x2e, 0xdf, 0xb1, 0xda, 0xb0, 0x76, 0x30, 0xb7, 0xb5,
  0xa5, 0xb5, 0x28, 0xb2, 0xd5, 0xad, 0xcf, 0xa8, 0xee, 0xb1, 0x28, 0x24,
  0xa5, 0x2c, 0x72, 0xb0, 0x6f, 0xac, 0x5e, 0xac, 0xef, 0x2d, 0xbe, 0xb4,
  0x40, 0x28, 0xea, 0xa8, 0x15, 0xb5, 0x3e, 0xa8, 0x41, 0x29, 0xad, 0x28,
  0xfa, 0x9c, 0xe7, 0x28, 0x69, 0xb7, 0x5d, 0x2d, 0x3b, 0x31, 0xb3, 0x2f,
  0x3c, 0xad, 0xf2, 0x29, 0x51, 0x31, 0xa3, 0x34, 0x40, 0x10, 0x16, 0x30,
  0x58, 0xac, 0x31, 0x32, 0x38, 0xb5, 0x00, 0x28, 0xca, 0x2a, 0xb5, 0x28,
  0xc2, 0xb1, 0x9e, 0xad, 0x96, 0x9e, 0xa6, 0xa1, 0xc2, 0xb4, 0x9b, 0xa9,
  0x93, 0xb8, 0x5b, 0x27, 0x89, 0x31, 0x63, 0x2e, 0x1b, 0xab, 0x47, 0x2d,
  0x53, 0x34, 0xc7, 0x2d, 0x96, 0xb2, 0x03, 0xb9, 0xdc, 0xb3, 0x7a, 0x33,
  0xc3, 0xb8, 0xc8, 0x27, 0x19, 0xb4, 0xe6, 0x2c, 0xee, 0xb6, 0x43, 0xb2,
  0x50, 0x30, 0xb1, 0x2d, 0x9e, 0xb2, 0xc8, 0xaa, 0x9b, 0xb5, 0x05, 0x24,
  0x53, 0xb1, 0xc0, 0xa4, 0x24, 0xaf, 0x9c, 0x2c, 0x85, 0xab, 0x19, 0x30,
  0xc3, 0xb2, 0x90, 0xb0, 0xf7, 0xaa, 0xb5, 0x2d, 0xae, 0xb7, 0xa7, 0xb0,
  0xf0, 0xa5, 0xac, 0xa6, 0xe6, 0xb1, 0x54, 0xb2, 0x47, 0xb3, 0x16, 0xb4,
  0xe0, 0xaf, 0xc4, 0xa8, 0xa6, 0x13, 0x0e, 0xa6, 0xef, 0xb3, 0xaa, 0x31,
  0xa1, 0x32, 0xa8, 0x33, 0x63, 0x27, 0xab, 0x30, 0xa7, 0x33, 0xf6, 0x2c,
  0x3a, 0xae, 0x74, 0xb4, 0x35, 0x30, 0x9f, 0xb1, 0x06, 0x9e, 0xe3, 0x33,
  0x5a, 0xae, 0x61, 0x2a, 0x92, 0xb4, 0x3e, 0xb5, 0xe0, 0x29, 0x5a, 0x2f,
  0x38, 0xa6, 0x0b, 0xb0, 0x99, 0xb2, 0xb0, 0x31, 0x5d, 0x2c, 0xe4, 0x2a,
  0x0e, 0x2d, 0x88, 0x25, 0xc6, 0x2f, 0x6d, 0x32, 0x85, 0x94, 0x0b, 0xaf,
  0x51, 0x2d, 0x04, 0x29, 0x2b, 0x2a, 0x20, 0x2e, 0x37, 0x2f, 0x6e, 0xaf,
  0xc6, 0xb0, 0x86, 0xb6, 0xce, 0x2b, 0x38, 0x31, 0x83, 0xaf, 0x56, 0x2d,
  0x00, 0x2d, 0x4f, 0xac, 0x27, 0xac, 0xef, 0x27, 0x5f, 0x32, 0xbc, 0x31,
  0x35, 0x31, 0x16, 0x31, 0x6f, 0x31, 0x69, 0x25, 0x15, 0x21, 0xe7, 0x30,
  0x0c, 0x2b, 0x98, 0x28, 0x11, 0x30, 0x18, 0xa1, 0x02, 0x2b, 0xfb, 0xb1,
  0x21, 0x32, 0x5f, 0x31, 0x90, 0xaf, 0x4f, 0xb0, 0x42, 0x2c, 0x2d, 0xac,
  0x64, 0xb5, 0x25, 0x2d, 0x19, 0xae, 0xa9, 0x2a, 0x95, 0x33, 0x43, 0xaf,
  0x49, 0x2e, 0x0d, 0xb4, 0x6d, 0xae, 0x81, 0x26, 0x33, 0x32, 0x88, 0xa8,
  0xd3, 0x31, 0x5a, 0xaf, 0x51, 0xaf, 0xe7, 0x26, 0xa9, 0x2c, 0x83, 0x2c,
  0x7c, 0x2f, 0xdf, 0xac, 0x6f, 0x2d, 0x53, 0x32, 0x4e, 0xae, 0xdc, 0x21,
  0x13, 0x2b, 0x30, 0x25, 0x03, 0x30, 0x70, 0x2d, 0xf0, 0x30, 0x5c, 0xb6,
  0x00, 0x2f, 0xee, 0x2b, 0x9b, 0x33, 0x27, 0xb0, 0x0d, 0x35, 0xf4, 0xa6,
  0x6c, 0xa8, 0x4e, 0xab, 0x56, 0x2e, 0xa8, 0x30, 0xeb, 0xa8, 0xaa, 0xa9,
  0x5d, 0xa9, 0x1e, 0xa4, 0xd4, 0xb2, 0xab, 0xa8, 0x14, 0xb0, 0x9c, 0xac,
  0x4b, 0x31, 0xef, 0x2d, 0xc2, 0x32, 0x7d, 0xb5, 0x67, 0x9a, 0x99, 0xb2,
  0xc8, 0x2b, 0x48, 0xb4, 0x61, 0x2c, 0x6e, 0x82, 0xef, 0x30, 0x1c, 0x30,
  0xcd, 0xb1, 0x1c, 0xa8, 0x56, 0x31, 0x60, 0x1d, 0x81, 0x31, 0xc3, 0x2d,
  0xdd, 0x30, 0x67, 0x28, 0x26, 0x2e, 0xff, 0xb2, 0x26, 0xac, 0x11, 0x2d,
  0x63, 0xb4, 0x54, 0x30, 0x7f, 0x31, 0x4e, 0xab, 0x8a, 0xa6, 0x7f, 0x2e,
  0x31, 0xb1, 0x70, 0xac, 0x06, 0x31, 0x95, 0xae, 0x40, 0xb6, 0xc1, 0xa6,
  0x5f, 0x1a, 0xb9, 0x28, 0xa8, 0xa4, 0xce, 0xa9, 0x59, 0xb2, 0x44, 0x1a,
  0xf8, 0x28, 0x79, 0xb4, 0xa4, 0xb5, 0x8f, 0xab, 0x7b, 0xb0, 0x55, 0x2c,
  0x8e, 0x20, 0x5c, 0xb2, 0x9d, 0xb1, 0x21, 0x2f, 0x51, 0xb1, 0x9a, 0xaf,
  0xf8, 0x32, 0xaa, 0xab, 0xc7, 0xb2, 0x7c, 0xa5, 0xe1, 0xa6, 0xf4, 0xad,
  0x0f, 0x9e, 0x05, 0x32, 0x39, 0xb5, 0x98, 0x32, 0x7d, 0xac, 0xfd, 0xb0,
  0xa9, 0xb0, 0xeb, 0x2c, 0x43, 0xb3, 0xad, 0x34, 0x37, 0x9d, 0x7a, 0xb3,
  0x6a, 0xb3, 0x5f, 0x30, 0x3f, 0xae, 0xd0, 0x31, 0x73, 0xad, 0xeb, 0xa0,
  0x0d, 0x33, 0xc2, 0x30, 0x5a, 0xb2, 0xb2, 0x2e, 0xba, 0xaf, 0xc6, 0x27,
  0x7b, 0xb3, 0x39, 0xac, 0xfa, 0x2d, 0x68, 0xb2, 0xe1, 0x30, 0xd1, 0x29,
  0x2c, 0x2c, 0xe3, 0xaf, 0x7a, 0xb4, 0xbd, 0xb1, 0x25, 0x34, 0x37, 0xa9,
  0x2c, 0x2d, 0x92, 0x30, 0xab, 0xac, 0xd8, 0x13, 0x48, 0xad, 0xac, 0xad,
  0xf0, 0xb2, 0x25, 0xb1, 0xc1, 0xae, 0x21, 0x31, 0x70, 0x1d, 0xe9, 0xb3,
  0x61, 0x95, 0x9b, 0xb0, 0xa6, 0x30, 0xe4, 0xae, 0x52, 0x95, 0x35, 0xaf,
  0x4c, 0xb5, 0xc8, 0xad, 0x93, 0x2d, 0x6d, 0x1d, 0x3e, 0x28, 0x28, 0xa5,
  0x5e, 0x20, 0x2e, 0xaa, 0xb8, 0x2c, 0xd9, 0xac, 0xa9, 0xb6, 0x40, 0x32,
  0x59, 0x32, 0x30, 0xae, 0x59, 0xb0, 0x2a, 0x21, 0x91, 0x30, 0xcd, 0xb4,
  0x02, 0x32, 0x06, 0xb0, 0xe9, 0xac, 0xab, 0xb0, 0x3f, 0xb7, 0x5a, 0x2a,
  0x97, 0xae, 0xfc, 0xa4, 0x96, 0x24, 0xf5, 0xb1, 0xc6, 0xb2, 0x70, 0xb5,
  0x25, 0xb0, 0xfb, 0xac, 0x9e, 0xb2, 0x08, 0x33, 0x53, 0x31, 0x29, 0x28,
  0x2a, 0x2f, 0x0f, 0x2c, 0xa8, 0xa8, 0xa6, 0xaf, 0xd1, 0xa2, 0x75, 0x35,
  0x79, 0xaf, 0x0d, 0x17, 0xe4, 0x33, 0x71, 0xb3, 0xfe, 0xb2, 0x42, 0x2c,
  0x86, 0xb1, 0x01, 0xaa, 0x17, 0x31, 0x30, 0xb6, 0x88, 0xa6, 0x4b, 0xb1,
  0x38, 0xb4, 0x0d, 0x2b, 0x19, 0x30, 0x5b, 0x2f, 0xfb, 0x28, 0x7b, 0x32,
  0x10, 0xa7, 0x3d, 0xb4, 0x02, 0xa9, 0x45, 0x32, 0xdd, 0xb0, 0x37, 0x31,
  0x05, 0x2c, 0x6e, 0xb1, 0xd4, 0xb1, 0x90, 0x99, 0x51, 0xa7, 0x4e, 0xac,
  0x99, 0x32, 0x4b, 0xb8, 0xb4, 0xb1, 0x5f, 0xb1, 0x0b, 0xb4, 0x44, 0xa8,
  0xbf, 0x32, 0xf1, 0xab, 0x76, 0x31, 0xaa, 0xab, 0x54, 0x30, 0xd1, 0xb1,
  0x99, 0xaf, 0xf5, 0x37, 0x12, 0xb2, 0x5f, 0x2b, 0x96, 0x2f, 0xb5, 0xb3,
  0xf3, 0xad, 0xd3, 0x31, 0xe9, 0x21, 0x20, 0xab, 0xdc, 0x34, 0x62, 0x2e,
  0xe3, 0xa8, 0x9a, 0x2e, 0xc4, 0x2d, 0xda, 0xa5, 0x02, 0x33, 0x92, 0xb2,
  0x83, 0xb3, 0x9a, 0xa8, 0xb3, 0x28, 0xa7, 0x31, 0xca, 0xaa, 0x4c, 0x25,
  0xec, 0x22, 0x10, 0x34, 0x8c, 0xa0, 0x48, 0x2e, 0xdc, 0x20, 0xde, 0xb2,
  0xf8, 0x2f, 0x03, 0x94, 0xd0, 0x2c, 0x22, 0x2c, 0x02, 0x2e, 0xc4, 0xaa,
  0x68, 0x9a, 0x23, 0x30, 0xa5, 0xa9, 0xf3, 0xb7, 0x4a, 0x2a, 0x99, 0xb3,
  0xc4, 0xb4, 0xd0, 0x29, 0x87, 0x28, 0xbe, 0xad, 0x12, 0xa8, 0x54, 0xae,
  0x9d, 0xb0, 0xcd, 0xac, 0x40, 0x31, 0x40, 0xaf, 0xa8, 0x23, 0x6a, 0x2f,
  0x0a, 0xb1, 0xe3, 0x31, 0xd9, 0x32, 0xa2, 0xa8, 0x84, 0x2c, 0xab, 0x28,
  0xba, 0xb1, 0x3d, 0xb8, 0x2a, 0xa8, 0xb6, 0xb1, 0x5d, 0xb8, 0x21, 0xb2,
  0xf7, 0x28, 0x6c, 0x30, 0x90, 0x2d, 0xf0, 0xb0, 0xff, 0x2c, 0x53, 0xac,
  0x60, 0x30, 0xe1, 0xb2, 0x9c, 0xb3, 0x24, 0x26, 0x23, 0x2e, 0x03, 0xb4,
  0x0f, 0x2c, 0xb2, 0x2c, 0xe4, 0xb1, 0x3f, 0x22, 0x58, 0x2e, 0x0b, 0xb3,
  0x38, 0x34, 0x7b, 0x29, 0x34, 0x31, 0x5b, 0xa1, 0x5e, 0xad, 0xab, 0xb0,
  0x09, 0x2c, 0x38, 0x30, 0x9e, 0xaa, 0x87, 0xa8, 0xe4, 0x29, 0x67, 0xa6,
  0xac, 0xb1, 0x22, 0x31, 0x7c, 0x30, 0x22, 0xb4, 0x2a, 0x33, 0xcf, 0x32,
  0x93, 0xad, 0x0d, 0xad, 0x66, 0xab, 0x43, 0xb4, 0x45, 0x30, 0x33, 0xb0,
  0x28, 0xb2, 0xcb, 0x30, 0x46, 0x2f, 0x77, 0xac, 0x01, 0x31, 0x70, 0xac,
  0x97, 0xb4, 0x3c, 0x2b, 0x6b, 0x21, 0x42, 0xb1, 0x12, 0xb1, 0x7b, 0x30,
  0x23, 0xae, 0xe5, 0xaf, 0xd2, 0x30, 0x83, 0xb0, 0x9f, 0x23, 0x34, 0x2c,
  0x4c, 0x2c, 0x37, 0xb5, 0x07, 0x33, 0xe9, 0xaa, 0x57, 0xb2, 0x10, 0xab,
  0x81, 0xac, 0x73, 0xac, 0x59, 0xaf, 0x96, 0x2a, 0x55, 0xae, 0xfc, 0xaa,
  0xbb, 0x25, 0xca, 0xae, 0xc4, 0xa5, 0x6b, 0x18, 0x42, 0x2b, 0x44, 0xa4,
  0xff, 0x24, 0xc8, 0x32, 0x5d, 0x9c, 0x23, 0x2a, 0x57, 0x24, 0xee, 0xae,
  0x83, 0xae, 0x9e, 0xac, 0x92, 0xae, 0x54, 0x31, 0x57, 0xae, 0x57, 0xb1,
  0x6f, 0x34, 0xe5, 0x25, 0x2e, 0xaf, 0x7b, 0x35, 0x30, 0xaa, 0xcc, 0xac,
  0x5c, 0xaa, 0x67, 0xb0, 0x8d, 0x2f, 0x54, 0xb0, 0xca, 0x9f, 0x8c, 0x24,
  0xd7, 0xaa, 0xff, 0x26, 0x24, 0xad, 0xa1, 0xb0, 0x83, 0x30, 0x65, 0x2c,
  0x47, 0xb1, 0xba, 0x33, 0xba, 0xac, 0x85, 0xaf, 0x4f, 0x32, 0x2d, 0xaf,
  0xce, 0xae, 0xf9, 0x30, 0x8c, 0xaa, 0xc3, 0xb1, 0x10, 0xb0, 0x6d, 0x2c,
  0xbc, 0x33, 0x6e, 0x30, 0x12, 0x2f, 0x6b, 0x95, 0xd4, 0x2f, 0x43, 0xaf,
  0x91, 0xb1, 0x78, 0xb1, 0xa9, 0x35, 0x52, 0xac, 0x70, 0xb0, 0xc3, 0x2f,
  0x0e, 0xaf, 0xc0, 0xac, 0x9e, 0x20, 0x95, 0x2c, 0x21, 0x2b, 0x2d, 0xa8,
  0x81, 0xb0, 0x59, 0x2f, 0x39, 0x35, 0xdc, 0x30, 0x4b, 0x2d, 0x60, 0x31,
  0x32, 0xb5, 0xff, 0x22, 0x43, 0xb5, 0x0f, 0xb4, 0x72, 0xb1, 0x2f, 0xa4,
  0x99, 0x18, 0x42, 0xb0, 0x97, 0x27, 0xfd, 0xb4, 0x29, 0x34, 0x28, 0x24,
  0x5d, 0xb6, 0x30, 0x9e, 0xef, 0xac, 0x2c, 0xb4, 0xda, 0x30, 0x3c, 0x27,
  0x3b, 0x32, 0xc0, 0xb0, 0xf8, 0xa2, 0x70, 0x35, 0x12, 0xb6, 0x98, 0xae,
  0x35, 0xb2, 0xc0, 0xb4, 0xba, 0xa9, 0xd5, 0x2e, 0xf9, 0xb0, 0xa5, 0xb1,
  0xdc, 0xa8, 0xb7, 0xb0, 0xd4, 0xad, 0xfd, 0xae, 0xb7, 0xb2, 0x9e, 0xaa,
  0xe0, 0xae, 0xa0, 0xb7, 0x12, 0x2c, 0x35, 0xb0, 0x4e, 0x33, 0x95, 0xb0,
  0xbb, 0x31, 0x00, 0x32, 0x81, 0x2d, 0xcc, 0xab, 0x38, 0xb5, 0xcc, 0x2d,
  0x11, 0x2e, 0x93, 0xb3, 0x3e, 0x31, 0xb9, 0xb5, 0xf5, 0xa3, 0x44, 0xb4,
  0x0e, 0x1c, 0x2f, 0xa0, 0xd8, 0x25, 0xac, 0xa5, 0x4e, 0xb6, 0x4f, 0xb7,
  0xe1, 0xaf, 0x3e, 0x2f, 0x25, 0xb2, 0x70, 0x2f, 0xab, 0x2c, 0xc5, 0x30,
  0x39, 0xb1, 0xcf, 0x26, 0x15, 0xb0, 0xeb, 0xae, 0xea, 0xb2, 0x62, 0x2b,
  0xf0, 0x2e, 0x8a, 0x21, 0xb1, 0x2c, 0x24, 0xad, 0xb6, 0x2c, 0x55, 0x31,
  0xe0, 0xb2, 0x4e, 0xad, 0xb8, 0x32, 0x57, 0xb4, 0x15, 0x29, 0xd2, 0x34,
  0x73, 0x29, 0x8d, 0xb1, 0xf6, 0xae, 0x44, 0xa0, 0x31, 0xb0, 0x37, 0xb3,
  0xa7, 0x2b, 0x48, 0xb3, 0x71, 0xb6, 0xc8, 0x26, 0xc9, 0x31, 0x73, 0xb2,
  0xdc, 0x1d, 0x2f, 0xa9, 0x7f, 0x2b, 0xfa, 0x2f, 0x12, 0xb4, 0x38, 0xb5,
  0x51, 0x20, 0x21, 0xb0, 0x66, 0x18, 0xa3, 0x34, 0x8e, 0x2a, 0x19, 0xb1,
  0xea, 0xaf, 0x9d, 0xb0, 0xe2, 0xb6, 0x09, 0xb6, 0x2b, 0x2d, 0xee, 0xb2,
  0x9b, 0xb3, 0xb5, 0xb4, 0x03, 0x30, 0x59, 0xa8, 0xdc, 0xb1, 0x0c, 0x21,
  0x46, 0xb1, 0xf2, 0x2f, 0xde, 0xb5, 0x8e, 0xb2, 0xa2, 0x32, 0xfa, 0xab,
  0xfb, 0xb6, 0x47, 0x27, 0xd5, 0x2e, 0x23, 0x2c, 0xd3, 0x2d, 0x8c, 0x2f,
  0x49, 0x2e, 0x2c, 0x2d, 0x59, 0x30, 0x66, 0x28, 0x44, 0xa7, 0x0d, 0xad,
  0x20, 0xb3, 0x54, 0x2e, 0x29, 0x2d, 0x3f, 0x32, 0x01, 0x31, 0xc3, 0xab,
  0x98, 0xa7, 0xa5, 0xa7, 0x1a, 0x30, 0x51, 0x31, 0x6a, 0x2e, 0xcf, 0xb3,
  0x12, 0x2d, 0xa6, 0x2a, 0x4f, 0x2e, 0x38, 0x31, 0x3b, 0x29, 0x6c, 0xae,
  0xe2, 0x2c, 0xb0, 0xb5, 0xb0, 0xb2, 0x12, 0x2c, 0x24, 0xb5, 0xa7, 0xb5,
  0x05, 0xb1, 0x1c, 0x30, 0x5a, 0x30, 0x86, 0x2d, 0x3e, 0x2c, 0xdb, 0x32,
  0x26, 0xac, 0x32, 0x34, 0xaa, 0xa6, 0x98, 0xac, 0x20, 0x2a, 0xcd, 0xb2,
  0x2b, 0x2d, 0xfd, 0x1c, 0xe9, 0xb6, 0xa8, 0xb6, 0x28, 0x33, 0x1a, 0xb8,
  0x10, 0xb7, 0xb9, 0x2f, 0x8d, 0xae, 0xb9, 0xb2, 0xb7, 0xb3, 0x35, 0x34,
  0xc3, 0xad, 0x22, 0x2e, 0x5e, 0xb7, 0xb1, 0x31, 0x76, 0xa9, 0x52, 0xb0,
  0x40, 0xb2, 0xab, 0xac, 0xe6, 0x2c, 0xe8, 0xa6, 0xb1, 0xb2, 0xf7, 0x30,
  0x4c, 0x34, 0xb2, 0x2f, 0xf1, 0xb4, 0xb4, 0x2c, 0xe8, 0xaf, 0x26, 0xb1,
  0x71, 0x35, 0x68, 0x32, 0x24, 0xb0, 0x85, 0x2a, 0x4b, 0xa8, 0x4f, 0xab,
  0xc5, 0x30, 0xfc, 0xb5, 0x47, 0xb2, 0xc8, 0xb1, 0x00, 0x2d, 0xf5, 0xb0,
  0xb3, 0x20, 0x12, 0xae, 0xd4, 0xa2, 0x67, 0x35, 0xe3, 0xa7, 0xef, 0x2f,
  0xda, 0xb1, 0x79, 0x2c, 0x6d, 0xad, 0x13, 0x31, 0xa3, 0x27, 0x20, 0x30,
  0x97, 0x32, 0x55, 0xb1, 0xc9, 0xb0, 0x4d, 0xb2, 0xdc, 0x27, 0xcf, 0xb1,
  0x97, 0xb1, 0x8f, 0xae, 0xd6, 0xb1, 0x22, 0xaf, 0xe9, 0xae, 0x88, 0x24,
  0x08, 0x31, 0xac, 0x29, 0x33, 0xad, 0x0a, 0xb0, 0x86, 0xb0, 0x3f, 0xae,
  0x08, 0x31, 0x05, 0xad, 0x5a, 0x2d, 0x2b, 0x27, 0xe0, 0x31, 0x43, 0x2d,
  0xfb, 0xa8, 0x6a, 0xb0, 0xb9, 0xb3, 0x5f, 0x28, 0x9e, 0xb2, 0x6e, 0xa8,
  0x71, 0xb4, 0x04, 0xa8, 0xb8, 0x33, 0xed, 0xb3, 0x88, 0xa6, 0x28, 0xb4,
  0x22, 0xaf, 0x42, 0xac, 0x5c, 0xb0, 0x80, 0xac, 0xdd, 0xad, 0xaa, 0xb3,
  0x0f, 0x34, 0xc5, 0xac, 0x5d, 0xb0, 0xdd, 0xb4, 0x68, 0x32, 0x0c, 0x26,
  0x75, 0xb0, 0x35, 0xb4, 0x97, 0x33, 0x39, 0xb4, 0x74, 0xac, 0xba, 0x34,
  0x32, 0x30, 0x27, 0xac, 0xe5, 0xb3, 0xca, 0xad, 0x9a, 0xac, 0xbc, 0x21,
  0xd9, 0x1f, 0xe8, 0xad, 0xc2, 0xb2, 0x09, 0x2d, 0x55, 0x34, 0x8e, 0x2b,
  0xd8, 0x2d, 0x65, 0x30, 0x54, 0x32, 0x08, 0x34, 0xd4, 0x2c, 0x56, 0xb0,
  0x73, 0x33, 0xff, 0xb0, 0xb6, 0xb0, 0xad, 0xac, 0x6d, 0x31, 0x00, 0xb2,
  0x6a, 0xb4, 0xcb, 0xaf, 0x37, 0x2e, 0xe3, 0x2f, 0xa2, 0xaa, 0xbc, 0x1c,
  0x5c, 0x22, 0xe8, 0x9b, 0x5c, 0xa8, 0x00, 0xaf, 0x40, 0xa8, 0x45, 0xad,
  0x97, 0x9f, 0x67, 0x22, 0x01, 0xa0, 0xe3, 0xb1, 0xc4, 0x2b, 0x2a, 0x2f,
  0x35, 0xb0, 0x05, 0xad, 0x06, 0xdd, 0xff, 0xff, 0x04, 0x00, 0x00, 0x00,
  0x58, 0x0b, 0x00, 0x00, 0x74, 0xa5, 0xe5, 0x35, 0xb6, 0x30, 0x27, 0x2b,
  0xd8, 0x34, 0xb7, 0xac, 0x51, 0x95, 0x0b, 0x31, 0x09, 0x30, 0x3b, 0x30,
  0x95, 0xb0, 0x72, 0xaa, 0x83, 0xb5, 0xf8, 0xb1, 0xec, 0x2c, 0x92, 0x2c,
  0x75, 0xac, 0x0c, 0x30, 0x7b, 0x37, 0xb4, 0x2d, 0xab, 0x31, 0x55, 0x30,
  0x64, 0x28, 0x95, 0x2b, 0xa0, 0xaf, 0x3d, 0xad, 0x2f, 0x35, 0x19, 0x30,
  0x0c, 0x33, 0x26, 0x28, 0xf4, 0x30, 0x27, 0x1e, 0xad, 0x2a, 0x63, 0x2a,
  0x8c, 0xb5, 0x1b, 0xa8, 0xb1, 0x30, 0xe8, 0xab, 0x7c, 0xb3, 0x91, 0x33,
  0xaf, 0x37, 0x27, 0x29, 0xaf, 0x31, 0xf2, 0xb0, 0x59, 0xb5, 0x08, 0x35,
  0x74, 0xb5, 0x04, 0xb6, 0xd5, 0x2d, 0x90, 0xab, 0x56, 0xa8, 0x8d, 0x33,
  0x3e, 0x13, 0x96, 0x34, 0xb1, 0xaf, 0x44, 0x2e, 0xff, 0xb0, 0x9f, 0x1f,
  0xd7, 0x28, 0xc0, 0xac, 0x11, 0xac, 0x81, 0x34, 0x1c, 0x35, 0x26, 0x2f,
  0xdf, 0xaf, 0x84, 0xb0, 0x30, 0x31, 0xa4, 0xac, 0x16, 0xb2, 0x65, 0x34,
  0x2c, 0xb2, 0x14, 0x32, 0xb0, 0xaa, 0x29, 0x9d, 0xf7, 0x30, 0x68, 0x20,
  0xcb, 0x34, 0x40, 0xa2, 0x99, 0x2d, 0x44, 0xb0, 0x8c, 0xad, 0x19, 0xa5,
  0x74, 0x32, 0x31, 0xad, 0x08, 0xb4, 0x24, 0x27, 0x71, 0xa5, 0xfe, 0x32,
  0x31, 0x30, 0x8e, 0xad, 0x13, 0xab, 0x39, 0x35, 0xc6, 0xab, 0x99, 0x35,
  0x13, 0x32, 0xc5, 0x18, 0x5d, 0xb1, 0x89, 0xb0, 0x59, 0x36, 0x83, 0x29,
  0x65, 0xa5, 0xbf, 0x29, 0x14, 0xb1, 0xfb, 0x2e, 0x76, 0xad, 0x1b, 0x31,
  0xf4, 0xac, 0x7e, 0x2e, 0x30, 0x2f, 0x95, 0x30, 0x12, 0x2a, 0x46, 0xb4,
  0x0f, 0xac, 0x27, 0x2e, 0x87, 0xb4, 0x1e, 0x34, 0xac, 0xb0, 0x1e, 0x30,
  0x05, 0xb3, 0x68, 0xac, 0x83, 0x32, 0x2b, 0x26, 0x9e, 0x31, 0x13, 0xa4,
  0x7e, 0xa6, 0x86, 0x32, 0x14, 0x30, 0x1d, 0xa7, 0x36, 0xb2, 0x75, 0xb0,
  0x6f, 0x2c, 0x97, 0x31, 0xe4, 0xb4, 0x1d, 0xb1, 0xb4, 0x32, 0x20, 0x32,
  0x11, 0x34, 0xa5, 0x25, 0x3d, 0xb2, 0xa7, 0xac, 0x22, 0x18, 0x1e, 0xb3,
  0xf3, 0x34, 0x9a, 0xb2, 0x17, 0x32, 0x40, 0xb1, 0xbd, 0x2c, 0x59, 0xae,
  0x79, 0x35, 0x01, 0x32, 0x16, 0x32, 0x1d, 0xb3, 0x06, 0x32, 0x87, 0xab,
  0xab, 0xb2, 0x4e, 0xb3, 0xaf, 0x33, 0xc7, 0xa9, 0xf2, 0x34, 0x50, 0xa3,
  0x77, 0xaa, 0xb6, 0xa6, 0x50, 0x30, 0x2a, 0xaf, 0x00, 0x29, 0x40, 0xad,
  0x74, 0x29, 0xf0, 0xb0, 0xf4, 0x2b, 0x4f, 0xae, 0xb4, 0x2b, 0xe0, 0xa9,
  0x63, 0x34, 0x47, 0xb5, 0x14, 0x27, 0x9a, 0xae, 0x05, 0x31, 0x38, 0xad,
  0xf5, 0x2e, 0x7c, 0x33, 0x1f, 0x35, 0x4f, 0x9d, 0x67, 0x1f, 0x08, 0xa8,
  0x7f, 0xac, 0x30, 0xb5, 0x51, 0x28, 0x85, 0xb2, 0x18, 0x2f, 0xa5, 0xa4,
  0xb1, 0xa8, 0xb3, 0xa8, 0x9a, 0x31, 0xc8, 0x9a, 0xb4, 0x31, 0x7a, 0xb3,
  0x6c, 0x2d, 0x3c, 0x30, 0xec, 0xac, 0x42, 0xb1, 0xa5, 0xb4, 0x4f, 0xab,
  0xfa, 0xb4, 0xf2, 0x34, 0x76, 0x2d, 0x07, 0xb0, 0xf8, 0xac, 0x3b, 0xb3,
  0x88, 0x36, 0x41, 0xb2, 0xf0, 0x31, 0x0a, 0xb5, 0xe8, 0x9e, 0x0b, 0x2e,
  0xb8, 0x2e, 0xf4, 0x1b, 0x1c, 0x31, 0xd7, 0x2f, 0x64, 0x31, 0xd7, 0x32,
  0xf2, 0xa9, 0x4a, 0xb1, 0x88, 0xb1, 0x0a, 0xb0, 0x9d, 0xac, 0xbf, 0x34,
  0x4b, 0x34, 0xac, 0xb2, 0xd0, 0x28, 0x46, 0xb5, 0xcd, 0x37, 0x28, 0xa0,
  0xad, 0x2f, 0xd6, 0xb4, 0x73, 0x89, 0x5f, 0x2d, 0x6b, 0x29, 0x63, 0xb1,
  0x61, 0x32, 0xa0, 0xac, 0xf9, 0xa7, 0xf0, 0x2d, 0x24, 0xb0, 0xf5, 0xa6,
  0xee, 0x21, 0xd6, 0xb0, 0x3c, 0xab, 0xa4, 0xa0, 0xf5, 0x32, 0xb2, 0xb1,
  0x8a, 0xa5, 0x77, 0xb3, 0x8e, 0x37, 0x8b, 0xad, 0xbf, 0x34, 0x4a, 0xb4,
  0xca, 0xa6, 0xb5, 0xb2, 0x15, 0x31, 0xd5, 0xb4, 0x43, 0x35, 0xf3, 0xb4,
  0x7f, 0x33, 0x65, 0x9d, 0x70, 0x22, 0xdf, 0x30, 0x8c, 0xb2, 0x59, 0x33,
  0xc4, 0x2a, 0x2a, 0x31, 0x59, 0x2d, 0xe5, 0x34, 0xcd, 0x2f, 0x4e, 0x30,
  0x8a, 0x24, 0xff, 0x30, 0x17, 0x24, 0xf6, 0xad, 0xab, 0xa9, 0xf2, 0xa3,
  0xd1, 0xb2, 0x68, 0x33, 0x34, 0xb8, 0x3e, 0x2c, 0x51, 0x28, 0x81, 0x31,
  0xb8, 0xa7, 0xf7, 0x2e, 0x34, 0xb2, 0xd6, 0x28, 0xf8, 0xac, 0x19, 0xab,
  0x87, 0xb4, 0xd2, 0x35, 0xc6, 0x32, 0x2a, 0x2e, 0xa4, 0xb2, 0x1a, 0x32,
  0x0f, 0xb1, 0xd7, 0x30, 0x96, 0xb1, 0x4d, 0x31, 0x39, 0xa4, 0xdb, 0x29,
  0xbd, 0xb8, 0x5c, 0x31, 0xfc, 0x31, 0x40, 0x32, 0xca, 0xa0, 0xe2, 0x34,
  0x92, 0xb2, 0xc6, 0x34, 0x08, 0x2c, 0x27, 0x32, 0x80, 0xb0, 0xe7, 0x2e,
  0xbc, 0x33, 0xbf, 0x2d, 0x71, 0xad, 0x83, 0x2e, 0xfe, 0xb4, 0xa7, 0xae,
  0x6b, 0xb3, 0x60, 0x2e, 0x30, 0x23, 0x2e, 0x34, 0xf7, 0xb4, 0x62, 0x35,
  0x75, 0x31, 0xc0, 0x1f, 0xda, 0x2c, 0x0c, 0xa7, 0x17, 0x9d, 0xf8, 0x33,
  0x0d, 0xb4, 0x17, 0x26, 0x08, 0x28, 0x71, 0x33, 0xfe, 0xb0, 0xa1, 0x32,
  0xb9, 0x31, 0xc9, 0xa0, 0xbe, 0xb1, 0x11, 0x34, 0xa7, 0x2e, 0xae, 0x2f,
  0x68, 0x28, 0x3d, 0x34, 0xb3, 0xb5, 0xce, 0x30, 0x33, 0xaf, 0x84, 0x32,
  0x9b, 0x28, 0xd9, 0x32, 0x9b, 0x26, 0x02, 0x31, 0x09, 0xa8, 0x8e, 0xab,
  0x56, 0xad, 0xa3, 0x30, 0x31, 0xae, 0x5c, 0x2c, 0x40, 0xa7, 0x02, 0x30,
  0x7a, 0xae, 0x18, 0x35, 0x15, 0x2b, 0x96, 0x31, 0xfa, 0x28, 0x29, 0x31,
  0x4e, 0xb7, 0x01, 0x2b, 0x43, 0x25, 0x3f, 0x33, 0xac, 0xab, 0x14, 0x21,
  0x10, 0xb3, 0x43, 0xa3, 0xd8, 0xaf, 0x50, 0x2b, 0x6e, 0x13, 0x65, 0x28,
  0x2f, 0x2f, 0xe8, 0xb0, 0x34, 0x2c, 0x03, 0x23, 0x11, 0xb3, 0x7e, 0x33,
  0x17, 0xb0, 0x55, 0x32, 0xaf, 0xb3, 0xc0, 0xaf, 0x73, 0xb3, 0xf6, 0x2e,
  0x5f, 0x2f, 0x2a, 0x31, 0x94, 0x2f, 0x27, 0x2d, 0x74, 0x30, 0xf0, 0xb4,
  0x7b, 0xb4, 0x81, 0xaa, 0x71, 0x32, 0x8b, 0xa8, 0x3f, 0x30, 0x54, 0xae,
  0xc9, 0xac, 0x9b, 0xac, 0x93, 0xac, 0x02, 0xa8, 0xf7, 0x31, 0x72, 0xae,
  0x93, 0x29, 0xc3, 0x2f, 0x72, 0x31, 0xf3, 0x34, 0xc6, 0xb2, 0x8c, 0x30,
  0xb6, 0x34, 0xb5, 0xaf, 0xde, 0x33, 0x7e, 0xb7, 0xe4, 0xb5, 0x0f, 0xb4,
  0x58, 0x34, 0xf4, 0x2e, 0x91, 0xb0, 0x52, 0x2d, 0xd6, 0x30, 0xa1, 0x31,
  0xbe, 0x24, 0x36, 0xb2, 0x82, 0x34, 0x8f, 0xb2, 0xb4, 0xa6, 0xcd, 0x2a,
  0xf0, 0x32, 0x29, 0x2d, 0xab, 0x2b, 0xbb, 0xb0, 0x10, 0x34, 0x3c, 0xaf,
  0xf0, 0x33, 0xee, 0xb8, 0xa5, 0xb8, 0x50, 0xb1, 0xa7, 0x1c, 0x64, 0xac,
  0xa6, 0xb1, 0x43, 0xb1, 0x01, 0x30, 0x9b, 0x2c, 0x4f, 0xad, 0x00, 0x31,
  0x7c, 0x32, 0xcd, 0xb0, 0xb2, 0x2f, 0x8d, 0xb0, 0xaf, 0x32, 0x2c, 0x2a,
  0x04, 0xb0, 0xe0, 0xb0, 0x52, 0xb4, 0x33, 0xb0, 0x5f, 0xa9, 0xad, 0x2e,
  0x1f, 0x32, 0x40, 0xb0, 0x4c, 0xb3, 0x69, 0x2d, 0x7a, 0xa5, 0xc1, 0xad,
  0xcc, 0xb0, 0xd6, 0xad, 0xb4, 0x27, 0x36, 0x30, 0x45, 0x34, 0xd3, 0xae,
  0x62, 0xad, 0xa9, 0x28, 0xe4, 0xb5, 0x5d, 0xae, 0x92, 0x32, 0x85, 0x31,
  0xa2, 0xb3, 0x79, 0x34, 0x71, 0xaa, 0x2a, 0x34, 0x57, 0x35, 0xca, 0x2a,
  0x36, 0xb3, 0x6e, 0xaf, 0x01, 0x2d, 0x6b, 0x28, 0x4c, 0x25, 0x3b, 0x2b,
  0x6c, 0xa4, 0x33, 0x2e, 0xcd, 0x2f, 0xc8, 0x32, 0xed, 0x2f, 0x73, 0x31,
  0x9f, 0xb4, 0xaf, 0xad, 0x18, 0x2e, 0x72, 0xa5, 0x40, 0xae, 0xec, 0x32,
  0x58, 0xad, 0x94, 0x32, 0x1f, 0x34, 0x1f, 0xb2, 0x67, 0xad, 0x62, 0xa7,
  0xb4, 0x22, 0x1b, 0xa4, 0x3f, 0x28, 0x4a, 0x31, 0xf9, 0x2f, 0x2f, 0x25,
  0x38, 0x34, 0x74, 0x32, 0x57, 0xa8, 0x0e, 0x30, 0xf6, 0xaf, 0xc0, 0x2c,
  0xb3, 0x33, 0x2e, 0x2f, 0x33, 0xac, 0xf8, 0x31, 0x4a, 0x31, 0x28, 0x30,
  0xea, 0x37, 0x79, 0x2c, 0x4e, 0x26, 0x7d, 0xa2, 0xd0, 0x31, 0x6e, 0x37,
  0x99, 0x26, 0x91, 0xb4, 0x75, 0x32, 0x94, 0x2e, 0x16, 0x33, 0x2b, 0x33,
  0x9e, 0x30, 0x13, 0x30, 0xbe, 0xa8, 0x1c, 0xb0, 0xdc, 0x2e, 0x3b, 0xb3,
  0x11, 0xb5, 0xf8, 0x30, 0xa3, 0x97, 0x08, 0x32, 0x36, 0x37, 0x2f, 0x2b,
  0x25, 0xae, 0x8c, 0xa4, 0x1b, 0xaa, 0x18, 0x34, 0x5e, 0xb0, 0xa2, 0xb3,
  0x7e, 0x28, 0x97, 0x28, 0x70, 0xab, 0x15, 0x32, 0x7b, 0x30, 0xa5, 0x32,
  0xfe, 0xb2, 0xca, 0x88, 0xb3, 0xad, 0x71, 0xaf, 0x46, 0xb5, 0x76, 0x35,
  0x5e, 0x31, 0xb4, 0x36, 0xd4, 0x38, 0xde, 0x31, 0x28, 0xb3, 0xa3, 0x29,
  0x3b, 0x35, 0x34, 0x34, 0xb5, 0xae, 0xff, 0xb0, 0x68, 0xb2, 0x00, 0xb1,
  0xb9, 0x32, 0x33, 0xa2, 0x94, 0xb1, 0x08, 0xa3, 0xa5, 0xb1, 0xc1, 0x23,
  0x8e, 0xa7, 0x4e, 0xb0, 0x8c, 0xa8, 0x7a, 0x2f, 0x98, 0x2f, 0xbe, 0xb4,
  0x40, 0xb1, 0x95, 0xa9, 0xa8, 0x29, 0x39, 0x2e, 0x04, 0xaf, 0x2a, 0x35,
  0xc0, 0x2e, 0x94, 0x2d, 0xeb, 0x30, 0x4a, 0x33, 0x6d, 0x2a, 0x04, 0x2e,
  0xe6, 0xaf, 0x0b, 0xa7, 0x03, 0xb3, 0xeb, 0x2d, 0xbf, 0xb0, 0x1c, 0xb0,
  0x5f, 0xb3, 0xee, 0x25, 0x40, 0x2a, 0x7c, 0xb3, 0x30, 0xb5, 0x3e, 0xad,
  0x0e, 0xa7, 0x2e, 0x2f, 0x20, 0xb0, 0xc0, 0x36, 0xcb, 0xb0, 0x85, 0x2f,
  0x87, 0xaf, 0xd5, 0x2e, 0x4e, 0xa0, 0xf7, 0x23, 0x44, 0x2d, 0x8b, 0x30,
  0x21, 0xb3, 0x20, 0x33, 0x6e, 0xb1, 0x05, 0x32, 0x3a, 0x21, 0x2a, 0xa2,
  0x26, 0x32, 0xe5, 0xad, 0x79, 0xb4, 0x81, 0xb5, 0x5a, 0x2c, 0xc8, 0x2c,
  0x10, 0xb6, 0x65, 0x35, 0x1a, 0x2f, 0xbb, 0x12, 0x65, 0x27, 0x75, 0x34,
  0x66, 0x34, 0x6c, 0x33, 0x23, 0x32, 0xad, 0x32, 0x7d, 0xb0, 0xbb, 0xa3,
  0x53, 0xaf, 0x6b, 0x30, 0x59, 0xac, 0x30, 0x34, 0x0b, 0x34, 0x93, 0xb1,
  0x6f, 0x2b, 0x3f, 0xb0, 0x02, 0xa2, 0x09, 0x31, 0xc0, 0x33, 0x2a, 0x36,
  0x4d, 0xb2, 0x68, 0x35, 0xcd, 0x2f, 0x9e, 0x2e, 0x9a, 0x24, 0xdd, 0xb5,
  0x08, 0x32, 0x09, 0xb7, 0x0c, 0x31, 0xf2, 0x33, 0x89, 0x20, 0xac, 0xa5,
  0x1c, 0x2d, 0xc0, 0x33, 0x38, 0xb1, 0x00, 0xaf, 0x7a, 0xa7, 0xfa, 0xb0,
  0xbe, 0xae, 0xbe, 0x34, 0x73, 0x37, 0x0c, 0x32, 0x8d, 0xb7, 0x38, 0x33,
  0xf6, 0xa9, 0xe8, 0xb2, 0xb3, 0x2f, 0x61, 0xa4, 0x4e, 0x28, 0x3d, 0xb5,
  0xec, 0x32, 0xdc, 0x32, 0x20, 0x35, 0x9f, 0x33, 0x1e, 0x35, 0xa9, 0x34,
  0xcf, 0xa9, 0xb1, 0x2f, 0x07, 0xab, 0x8b, 0xa6, 0x25, 0x32, 0x7f, 0x34,
  0xf1, 0x35, 0xe6, 0x94, 0x2b, 0xb8, 0x32, 0x32, 0x6d, 0xb1, 0xba, 0xaf,
  0x13, 0x34, 0x7d, 0x28, 0xa3, 0x9d, 0xba, 0xac, 0xbe, 0x2f, 0xe4, 0x31,
  0xe3, 0x36, 0x12, 0x34, 0x71, 0xad, 0xdc, 0x31, 0x5d, 0x35, 0x56, 0xaf,
  0x48, 0xb4, 0x0c, 0xb4, 0xe2, 0xac, 0xc1, 0x9c, 0xd5, 0xac, 0x22, 0x2a,
  0xfd, 0xb4, 0xeb, 0x30, 0xd2, 0xa8, 0x4f, 0x36, 0x24, 0x34, 0x99, 0x23,
  0x99, 0x27, 0xa4, 0x2e, 0x20, 0xae, 0xa7, 0x34, 0xcd, 0x29, 0x6c, 0xad,
  0x5f, 0xaf, 0x84, 0x30, 0xf6, 0x31, 0xd6, 0x33, 0x2b, 0x32, 0xae, 0xb3,
  0x16, 0xad, 0xc2, 0x31, 0x04, 0x2d, 0xe8, 0x34, 0x24, 0xb6, 0xaf, 0x99,
  0x93, 0x30, 0xb1, 0x32, 0xc3, 0x21, 0x1b, 0x29, 0xca, 0xaa, 0x1c, 0x31,
  0xa5, 0xb6, 0x70, 0xa9, 0x59, 0xb0, 0xdd, 0xad, 0xc7, 0xb4, 0x14, 0x94,
  0xa1, 0x36, 0xb2, 0x2c, 0x23, 0x25, 0x29, 0xac, 0x62, 0xae, 0x04, 0xa3,
  0x70, 0xac, 0xa7, 0x31, 0x3e, 0xb6, 0xea, 0x29, 0x99, 0x29, 0xd0, 0x34,
  0xd1, 0x30, 0x73, 0x2a, 0x63, 0xaf, 0x07, 0xaa, 0x03, 0xb4, 0xe7, 0x20,
  0x03, 0x8f, 0xca, 0xb2, 0xc0, 0xaf, 0x76, 0x21, 0xe1, 0x2f, 0x01, 0xab,
  0x73, 0xb4, 0x8b, 0xb1, 0xec, 0xb3, 0x9f, 0x2f, 0xf9, 0xb1, 0xcc, 0x34,
  0x66, 0x32, 0x13, 0x31, 0x48, 0x2e, 0xa0, 0xa2, 0x35, 0x2a, 0x94, 0x32,
  0xf8, 0x2f, 0xa9, 0x2d, 0x00, 0xad, 0x15, 0x31, 0xd7, 0x2c, 0x9e, 0xaa,
  0xff, 0xb1, 0x07, 0xac, 0x50, 0xb0, 0x6e, 0x2d, 0xc6, 0xaf, 0x26, 0xb4,
  0xcc, 0x2e, 0xa7, 0xb0, 0x3f, 0xad, 0x5c, 0x36, 0x31, 0xab, 0xb5, 0xac,
  0x5a, 0x23, 0xde, 0x28, 0x5f, 0xaf, 0x16, 0x31, 0x5c, 0x34, 0x79, 0xb0,
  0xa1, 0xb2, 0x3c, 0x25, 0xb0, 0xa5, 0xba, 0xa2, 0xa3, 0xb3, 0xd3, 0x35,
  0x8a, 0x2b, 0x8d, 0xae, 0x4f, 0xb3, 0x97, 0xb1, 0x0b, 0x2d, 0xee, 0xa5,
  0x7e, 0xb1, 0xab, 0x35, 0x5b, 0x2a, 0x1f, 0x31, 0x47, 0x30, 0xdc, 0x34,
  0x44, 0xa5, 0x32, 0x1f, 0xf6, 0x27, 0x06, 0xae, 0x4e, 0xb1, 0xad, 0x2a,
  0x9c, 0x2d, 0x91, 0xa5, 0x01, 0x32, 0xa1, 0xaf, 0x00, 0x38, 0x90, 0x35,
  0x5d, 0xae, 0x8c, 0x31, 0x02, 0x36, 0x6e, 0x33, 0xea, 0xb4, 0xda, 0x30,
  0x4c, 0xab, 0x51, 0x2d, 0x19, 0x2e, 0x99, 0x2d, 0xef, 0x36, 0x1d, 0x31,
  0x63, 0xb0, 0x90, 0x30, 0x0d, 0xaf, 0x79, 0x32, 0xc9, 0xa8, 0x51, 0x2e,
  0x3f, 0x29, 0x97, 0xb0, 0x1d, 0x38, 0xa2, 0x20, 0x34, 0xb4, 0x10, 0xaa,
  0x39, 0x2f, 0x53, 0x33, 0x99, 0xb1, 0x85, 0x31, 0x74, 0xb3, 0x67, 0x31,
  0xda, 0xaa, 0x04, 0x34, 0x61, 0x35, 0xfa, 0xb0, 0xf3, 0xb1, 0x4a, 0xa6,
  0x18, 0x2a, 0xd9, 0xa4, 0x7b, 0xab, 0xb3, 0xb0, 0x89, 0xa5, 0xf6, 0xb3,
  0x0d, 0x36, 0x7d, 0xb6, 0xff, 0xb6, 0xaa, 0xb1, 0xff, 0x2e, 0x8d, 0x26,
  0xae, 0x1d, 0x80, 0xb1, 0x08, 0xb3, 0x1f, 0x31, 0x4e, 0xac, 0x19, 0x30,
  0xd8, 0x29, 0x4b, 0xb2, 0x6e, 0xb3, 0xdb, 0x28, 0xf0, 0x32, 0x03, 0xa0,
  0x46, 0xac, 0x22, 0xb6, 0x98, 0x31, 0xa5, 0xae, 0x6f, 0xb3, 0xd1, 0x21,
  0x16, 0xb4, 0x3b, 0xad, 0xc2, 0x24, 0x6a, 0x32, 0x78, 0xac, 0x00, 0x37,
  0x17, 0xac, 0x66, 0x31, 0x17, 0xb2, 0x97, 0x2e, 0xd8, 0xb3, 0x77, 0x30,
  0xed, 0x25, 0xaa, 0x27, 0x0a, 0xa3, 0xc3, 0x33, 0x91, 0x28, 0x86, 0x2e,
  0xc7, 0xb1, 0x6a, 0xad, 0xc1, 0xb5, 0xe9, 0xaa, 0x96, 0xb6, 0x2a, 0x24,
  0x2d, 0xa5, 0x2a, 0x2c, 0xcf, 0x2e, 0xa1, 0x34, 0xef, 0x2d, 0x2c, 0xae,
  0x11, 0xac, 0xac, 0x32, 0x57, 0x14, 0x08, 0x2d, 0xd1, 0xad, 0x5b, 0x14,
  0x9b, 0x2a, 0xad, 0x35, 0x88, 0xb1, 0x69, 0x2e, 0x21, 0xab, 0x82, 0x2e,
  0x6c, 0x29, 0xb2, 0x32, 0x20, 0xa9, 0x4a, 0xb2, 0x67, 0x34, 0x50, 0x2f,
  0xf8, 0x2d, 0x7f, 0x34, 0x74, 0x23, 0x2d, 0xa4, 0xf4, 0xb2, 0xa2, 0x20,
  0x6b, 0x33, 0x82, 0x2c, 0xd8, 0xab, 0x95, 0x30, 0x50, 0x32, 0x54, 0x34,
  0x4a, 0xad, 0x4c, 0x30, 0x11, 0x33, 0x90, 0xaa, 0x37, 0xab, 0xd1, 0xb1,
  0x34, 0xb6, 0x51, 0x84, 0x91, 0xac, 0x22, 0x2b, 0x1e, 0x33, 0x7e, 0x32,
  0xb2, 0xac, 0xc7, 0x35, 0x03, 0xb0, 0x1e, 0x34, 0xf4, 0xaa, 0x57, 0xaf,
  0xcf, 0xb0, 0xb1, 0xaf, 0x2f, 0x9d, 0x9e, 0x34, 0x1a, 0x33, 0x7a, 0x31,
  0x75, 0x2d, 0xb8, 0x2b, 0xef, 0x2f, 0x2b, 0xb0, 0x85, 0xb1, 0x7d, 0xac,
  0x16, 0x1b, 0x12, 0x32, 0x7c, 0xaf, 0x1d, 0x33, 0x40, 0xb3, 0x1d, 0xa6,
  0xa9, 0xb0, 0x61, 0x2a, 0xa5, 0x30, 0x44, 0xb2, 0xf7, 0x2c, 0xe4, 0xa4,
  0x86, 0xa4, 0xb5, 0x30, 0x77, 0x30, 0x90, 0x2e, 0xc5, 0x33, 0xf6, 0xac,
  0x49, 0x2e, 0xa5, 0x2d, 0x6f, 0xb5, 0x66, 0xac, 0x69, 0xae, 0x44, 0x34,
  0x40, 0x30, 0x13, 0xb0, 0x7e, 0xb5, 0xac, 0x2d, 0xf2, 0xb1, 0x7d, 0x2f,
  0x5f, 0x33, 0xf5, 0xb2, 0xbd, 0xb4, 0xf6, 0x2a, 0xde, 0xb0, 0x0a, 0x2b,
  0xe7, 0x2e, 0xd0, 0x17, 0xc8, 0x31, 0x1b, 0x29, 0x49, 0xb1, 0x4b, 0xa9,
  0x55, 0xa6, 0x65, 0xac, 0x00, 0xa0, 0x14, 0x2d, 0xbf, 0xad, 0x8b, 0xad,
  0xf6, 0xb5, 0x68, 0x2d, 0x05, 0xae, 0xe0, 0xb0, 0x3a, 0x2d, 0x8d, 0x2b,
  0x19, 0xb4, 0xa9, 0xab, 0xb6, 0xab, 0xa5, 0x9b, 0x85, 0xb1, 0x93, 0xa8,
  0xee, 0x2e, 0x96, 0x34, 0xe6, 0xb3, 0xe0, 0x33, 0xf3, 0xac, 0x82, 0x33,
  0xfe, 0x2f, 0x36, 0x33, 0x3f, 0xad, 0xd7, 0xa6, 0x9f, 0xa9, 0xb1, 0x30,
  0x64, 0xb1, 0x7b, 0x2e, 0x04, 0x29, 0x06, 0x34, 0xa3, 0xb0, 0xb6, 0x34,
  0x93, 0xb4, 0x93, 0x31, 0x96, 0x2c, 0x76, 0x2c, 0xac, 0x31, 0xe7, 0x34,
  0xb2, 0xac, 0xc2, 0x34, 0x7a, 0xb0, 0xe7, 0x2d, 0x97, 0x2a, 0x0b, 0x30,
  0x10, 0x34, 0x4c, 0xae, 0xa3, 0xad, 0x84, 0x2d, 0x56, 0xae, 0x5d, 0x36,
  0xb4, 0x2e, 0xfe, 0x31, 0x90, 0xac, 0x6c, 0x2d, 0xd2, 0xb1, 0x13, 0x2d,
  0x1a, 0xa8, 0x9e, 0x18, 0x5c, 0x34, 0x91, 0xb4, 0xc7, 0x30, 0x53, 0x35,
  0x04, 0x31, 0x71, 0x2f, 0x86, 0xad, 0x62, 0xb0, 0x4a, 0xac, 0x31, 0xb4,
  0xf9, 0x33, 0x4c, 0xa8, 0x1d, 0x35, 0xb4, 0x2c, 0x13, 0x34, 0x5f, 0xa4,
  0xd9, 0xaa, 0xea, 0xaa, 0xc7, 0x2f, 0x3f, 0xb1, 0xeb, 0xb3, 0x75, 0xb3,
  0xe7, 0x21, 0xe4, 0xb4, 0xc3, 0x35, 0xb4, 0xac, 0x76, 0x2c, 0x92, 0x2c,
  0x81, 0x2d, 0x6a, 0x25, 0xb2, 0xb2, 0x28, 0xb1, 0x13, 0xad, 0xfb, 0xaa,
  0x15, 0x36, 0x08, 0xac, 0x91, 0x28, 0x4e, 0xb1, 0x7a, 0x1c, 0xb3, 0xb0,
  0x9e, 0xae, 0x2b, 0xb5, 0x4a, 0xb2, 0xef, 0xae, 0x95, 0x2c, 0x53, 0xa9,
  0x1a, 0x35, 0xa1, 0x34, 0x04, 0x32, 0x32, 0x29, 0xf1, 0x2e, 0xee, 0xac,
  0xe6, 0xb3, 0x37, 0x30, 0xc6, 0x30, 0x7a, 0x31, 0xf0, 0x35, 0xb2, 0xad,
  0xa3, 0x31, 0xc2, 0x2b, 0x23, 0x35, 0x21, 0x25, 0x56, 0x2e, 0xb1, 0xac,
  0x18, 0xad, 0x70, 0xad, 0x32, 0x35, 0x2b, 0x25, 0x86, 0xb4, 0x8c, 0xb4,
  0x06, 0xb6, 0x12, 0xb1, 0x37, 0x2b, 0x92, 0x2e, 0x4b, 0x33, 0xda, 0x24,
  0xee, 0xa6, 0x08, 0x2d, 0xf1, 0x2d, 0xc0, 0x30, 0x6c, 0x30, 0xdf, 0xb2,
  0x08, 0xb1, 0x69, 0xae, 0x33, 0x31, 0xfa, 0xa3, 0x26, 0x1d, 0xe7, 0xac,
  0x87, 0x2b, 0x16, 0xa9, 0x41, 0x28, 0xef, 0xae, 0xe9, 0xb7, 0x6a, 0xae,
  0x61, 0x2d, 0x6d, 0x2e, 0x37, 0xac, 0x2a, 0xa7, 0x4f, 0xb1, 0x39, 0xac,
  0x9e, 0xac, 0x6e, 0xab, 0xd3, 0x34, 0x38, 0xae, 0x3b, 0xae, 0x7a, 0x31,
  0xfb, 0x33, 0x91, 0x30, 0x03, 0xac, 0xe6, 0x31, 0xcc, 0x33, 0x03, 0x30,
  0xcf, 0x33, 0xb7, 0x20, 0x6c, 0xaa, 0x60, 0xae, 0x58, 0x33, 0xf3, 0x2d,
  0x65, 0xb0, 0xb2, 0xa2, 0x32, 0x23, 0x7e, 0xae, 0xe5, 0x9b, 0x66, 0xb0,
  0x45, 0x33, 0xd1, 0xab, 0x94, 0x28, 0x31, 0xad, 0x62, 0x31, 0x8f, 0xae,
  0x1d, 0x30, 0xef, 0xb0, 0x72, 0xa5, 0xf1, 0x0d, 0x2d, 0x2d, 0x5e, 0x38,
  0x0c, 0x27, 0xbc, 0x2d, 0x91, 0x31, 0xa7, 0xa5, 0xba, 0xb0, 0xfc, 0xad,
  0x38, 0xad, 0x58, 0xa9, 0x5f, 0xa8, 0xd5, 0xad, 0xce, 0xb0, 0x39, 0xa6,
  0x75, 0xb2, 0x79, 0x32, 0x4e, 0xb4, 0x6f, 0x35, 0xff, 0x2f, 0x7d, 0x29,
  0x26, 0xad, 0xe8, 0x31, 0x66, 0x33, 0x8d, 0x2f, 0xa7, 0xb0, 0x16, 0x35,
  0xb8, 0x2e, 0x21, 0x34, 0x97, 0x31, 0x42, 0xb5, 0xb2, 0x2e, 0xf7, 0x2e,
  0x24, 0x2f, 0xea, 0x31, 0x31, 0x34, 0x5f, 0xac, 0xd7, 0xaf, 0x8a, 0x2b,
  0x3b, 0x2e, 0x14, 0x2e, 0x1c, 0x2e, 0x21, 0xa4, 0x8e, 0x25, 0x6b, 0xad,
  0x26, 0x35, 0x06, 0x34, 0xb1, 0xb0, 0x43, 0x32, 0x46, 0x30, 0xbf, 0x34,
  0x52, 0xb2, 0x5b, 0xb4, 0xe6, 0xaf, 0x36, 0xb0, 0xba, 0xab, 0xb0, 0x2c,
  0xc8, 0x2f, 0x19, 0x29, 0xd3, 0xaa, 0xc3, 0x23, 0x3e, 0x31, 0xfe, 0x2b,
  0xdf, 0xb2, 0xe3, 0xb1, 0x4e, 0xa3, 0xca, 0x28, 0x33, 0xb8, 0xad, 0xaa,
  0xc7, 0xb5, 0x46, 0x2d, 0xbe, 0x35, 0x1a, 0x27, 0xa5, 0xb0, 0xd3, 0xa0,
  0x0b, 0x30, 0x51, 0x32, 0x9c, 0xb2, 0x21, 0xa5, 0xb3, 0x8d, 0x8e, 0xad,
  0xd1, 0xa7, 0x58, 0x00, 0x07, 0xb2, 0xae, 0x30, 0x92, 0x30, 0xc0, 0x2c,
  0xd2, 0x30, 0xf4, 0x2b, 0x7d, 0xb8, 0x1f, 0xb0, 0x26, 0xb7, 0x3a, 0x2b,
  0x58, 0x31, 0x45, 0x2f, 0x80, 0xb2, 0x76, 0x34, 0x6b, 0x30, 0x08, 0x2c,
  0x32, 0x29, 0xce, 0x2d, 0x8c, 0xa5, 0x52, 0x31, 0x3b, 0x33, 0xab, 0x28,
  0x5c, 0xb5, 0xde, 0x33, 0x91, 0x2a, 0x1d, 0x34, 0xcb, 0x32, 0xab, 0xb5,
  0x16, 0xb5, 0x79, 0xb0, 0xdc, 0xb8, 0xea, 0x2d, 0x60, 0x2d, 0x06, 0x25,
  0x93, 0xb1, 0x54, 0x32, 0xab, 0x33, 0x67, 0x30, 0x6e, 0xa3, 0x78, 0x32,
  0xa0, 0xb4, 0x34, 0x34, 0xd5, 0xac, 0x7c, 0x2c, 0x21, 0xa8, 0xa9, 0x35,
  0xb8, 0xae, 0xc5, 0x32, 0x7e, 0x25, 0x26, 0xb0, 0xe6, 0xad, 0x53, 0xa1,
  0xa3, 0xae, 0x9d, 0xb2, 0x4d, 0x23, 0xa5, 0xb4, 0xe2, 0x31, 0x89, 0xa8,
  0x0d, 0x2c, 0xd9, 0x34, 0xfc, 0x32, 0xc0, 0x2b, 0x38, 0x2d, 0x24, 0xb2,
  0xbb, 0x34, 0x94, 0xb3, 0x54, 0xac, 0xda, 0xa3, 0x82, 0xab, 0x15, 0x2a,
  0x11, 0xaa, 0xa5, 0xaf, 0xa4, 0x17, 0xd7, 0xa7, 0x63, 0xb8, 0x38, 0xb5,
  0x6e, 0x32, 0x7c, 0xb3, 0xd2, 0x2e, 0x5e, 0x2b, 0x83, 0x23, 0x4f, 0x32,
  0x12, 0x31, 0x02, 0x2d, 0xab, 0x9f, 0xa4, 0xb2, 0x29, 0x30, 0x18, 0xb5,
  0xe9, 0x2f, 0xba, 0x29, 0x03, 0xab, 0x9e, 0xab, 0xc3, 0x32, 0x1a, 0x32,
  0x2c, 0x29, 0xf8, 0xb0, 0xaa, 0xb3, 0xd3, 0xb4, 0x7f, 0x31, 0xf1, 0xae,
  0xf1, 0x9d, 0x8d, 0x36, 0xd6, 0xb0, 0x16, 0x35, 0xa8, 0x31, 0x49, 0x2e,
  0x99, 0x32, 0xc6, 0xb4, 0x59, 0x31, 0x80, 0xb4, 0x2f, 0x31, 0x81, 0x30,
  0xcb, 0x30, 0x49, 0x2f, 0x6a, 0xe8, 0xff, 0xff, 0x04, 0x00, 0x00, 0x00,
  0xac, 0x05, 0x00, 0x00, 0x83, 0xb2, 0x46, 0xb1, 0x24, 0xb4, 0x54, 0xad,
  0x77, 0x30, 0x50, 0x34, 0x82, 0x32, 0x5e, 0xb1, 0x1e, 0xab, 0xc8, 0x33,
  0x4c, 0xaf, 0xa4, 0xb0, 0x45, 0xae, 0x51, 0xad, 0xea, 0x30, 0x87, 0x2c,
  0x1a, 0x30, 0xf2, 0x34, 0x4b, 0xa0, 0x93, 0x22, 0x1e, 0x30, 0xa2, 0x34,
  0x45, 0xa6, 0x8d, 0x22, 0x0f, 0xb1, 0x73, 0xb0, 0x61, 0x33, 0xfe, 0x2e,
  0x89, 0x35, 0xf4, 0xb3, 0x0a, 0x31, 0x7f, 0x34, 0x7a, 0x2c, 0xc2, 0xaa,
  0xaf, 0x2d, 0x1a, 0x24, 0x14, 0x35, 0x41, 0xb0, 0xef, 0x34, 0xa8, 0x2e,
  0x93, 0xb0, 0x6b, 0x28, 0x2d, 0xac, 0x6e, 0xb2, 0xcb, 0x32, 0x35, 0x32,
  0x3e, 0xac, 0xce, 0x36, 0x36, 0xb0, 0xe8, 0x36, 0x3d, 0x2a, 0x12, 0xb1,
  0x86, 0x30, 0x3a, 0xad, 0x5f, 0x30, 0xab, 0x2b, 0x8e, 0x31, 0x33, 0xb4,
  0xf1, 0x2f, 0x86, 0x32, 0x9e, 0x32, 0x91, 0xb5, 0x44, 0x32, 0x13, 0x34,
  0x8a, 0xae, 0xc8, 0xb4, 0x51, 0x33, 0xb8, 0xae, 0xdf, 0x32, 0x29, 0x30,
  0xa2, 0x33, 0x63, 0x2c, 0x31, 0x34, 0x8e, 0x27, 0x62, 0x33, 0x81, 0xa4,
  0x1c, 0x30, 0x19, 0x35, 0x89, 0xb0, 0x78, 0x31, 0x6c, 0xac, 0x02, 0x37,
  0x03, 0xb4, 0xc6, 0x34, 0xc4, 0xab, 0x5f, 0xb4, 0x0b, 0xb1, 0xea, 0x28,
  0x90, 0x2d, 0xc5, 0xb0, 0x2c, 0x33, 0x09, 0x24, 0x9d, 0x33, 0xd6, 0xb9,
  0x2c, 0xae, 0xcb, 0xb0, 0xd0, 0xb8, 0x0d, 0xb6, 0xa7, 0xb3, 0x40, 0x35,
  0xa9, 0xaa, 0x01, 0x2a, 0x94, 0xb4, 0x4e, 0xaf, 0x50, 0xac, 0x10, 0xb3,
  0x3e, 0xb0, 0x5a, 0x2f, 0x43, 0xaa, 0x9e, 0x34, 0x39, 0x37, 0xe3, 0x2f,
  0x2b, 0x31, 0x89, 0x2d, 0xd4, 0x31, 0x48, 0xb1, 0x99, 0xae, 0x60, 0x31,
  0x69, 0x2d, 0xf4, 0x31, 0x4d, 0x35, 0x0b, 0x30, 0xae, 0x18, 0x03, 0xa9,
  0x31, 0x35, 0x45, 0x2c, 0x95, 0xaf, 0xdf, 0xae, 0x9a, 0xb1, 0x3e, 0xb3,
  0xda, 0xaf, 0x13, 0xae, 0x60, 0x33, 0x07, 0x2e, 0xdb, 0x32, 0x7c, 0x31,
  0xa6, 0x31, 0x1a, 0xb0, 0x4d, 0xb3, 0x78, 0x85, 0xc8, 0xae, 0x1b, 0xae,
  0xd7, 0x32, 0x8a, 0x35, 0xde, 0x32, 0x0b, 0x38, 0xdb, 0x34, 0xad, 0xad,
  0xfe, 0x2b, 0xfe, 0xb5, 0xb6, 0x27, 0xd9, 0xb2, 0x26, 0xb0, 0x24, 0x26,
  0x06, 0x34, 0x3d, 0xb1, 0x50, 0x34, 0xbe, 0x31, 0x25, 0xb3, 0x4f, 0x2e,
  0x16, 0xb7, 0x5f, 0x2e, 0x53, 0xad, 0x9c, 0xb4, 0x17, 0xb4, 0x68, 0x31,
  0x71, 0x1f, 0xbd, 0x32, 0x27, 0xa9, 0x12, 0xa9, 0x61, 0xa9, 0x57, 0xad,
  0x2f, 0xb1, 0x14, 0x34, 0x61, 0x35, 0x04, 0x34, 0xff, 0xad, 0x39, 0x24,
  0xa7, 0x34, 0x76, 0x31, 0xdd, 0xaf, 0x03, 0xb4, 0xc8, 0xb1, 0xb6, 0xb2,
  0x13, 0xb0, 0xe5, 0x34, 0x13, 0x2f, 0x7d, 0x29, 0x3d, 0x26, 0x57, 0xa1,
  0x08, 0xb2, 0xa9, 0xb2, 0xf6, 0xac, 0x6f, 0xaf, 0xad, 0x2e, 0x08, 0x14,
  0x3a, 0x2f, 0xf3, 0x33, 0x40, 0xb4, 0xcc, 0xb2, 0x25, 0xb4, 0x9c, 0xa6,
  0xa6, 0x31, 0x3d, 0x32, 0xa1, 0x30, 0x2d, 0x2f, 0x63, 0x34, 0x08, 0x30,
  0x2b, 0x32, 0x31, 0xb3, 0xc9, 0x30, 0x09, 0xaf, 0x44, 0xae, 0x4a, 0x33,
  0xc0, 0x20, 0x76, 0x32, 0xef, 0xb0, 0x2f, 0x34, 0x19, 0x2f, 0x7a, 0xa9,
  0x68, 0xb2, 0x16, 0xb0, 0x7c, 0x2e, 0x9f, 0x2e, 0xd3, 0x34, 0x33, 0xb0,
  0x5f, 0x31, 0x40, 0x31, 0x76, 0x24, 0x03, 0x2d, 0xf1, 0xb1, 0x8b, 0xb0,
  0xd5, 0x25, 0x40, 0xaa, 0x14, 0x35, 0xab, 0x34, 0x9a, 0x35, 0xae, 0x2e,
  0xb9, 0x9a, 0xd5, 0xab, 0xc1, 0x2d, 0x7f, 0xb0, 0xb1, 0xad, 0x72, 0x2c,
  0x89, 0xb4, 0x2f, 0x30, 0x16, 0x35, 0xf7, 0x31, 0xbe, 0xb1, 0x02, 0xb0,
  0xc1, 0xae, 0x53, 0x33, 0x77, 0x30, 0x40, 0x24, 0x6a, 0xab, 0xb5, 0xac,
  0xb5, 0x35, 0x1b, 0x32, 0xea, 0x35, 0xa9, 0xb0, 0x9f, 0xad, 0xc1, 0xac,
  0xe1, 0x32, 0x15, 0x2a, 0xd0, 0x2d, 0xbd, 0xae, 0xa7, 0x2c, 0x3f, 0x31,
  0x8f, 0x2e, 0xd6, 0x37, 0x4e, 0x2e, 0xa7, 0xb0, 0x4f, 0x24, 0xa5, 0xa6,
  0x81, 0xb2, 0x26, 0xaf, 0x38, 0xb2, 0x6c, 0xb1, 0xc5, 0x30, 0x84, 0xb2,
  0xf3, 0x38, 0xd5, 0xb0, 0xb3, 0x28, 0x09, 0x2e, 0x16, 0x21, 0x74, 0x33,
  0x2a, 0x2b, 0x31, 0x1c, 0x39, 0x2a, 0x12, 0x35, 0x53, 0xb3, 0x59, 0x35,
  0x53, 0x33, 0x42, 0xae, 0x3c, 0x32, 0x17, 0xaf, 0xfa, 0xa5, 0x2a, 0xb0,
  0xb9, 0xad, 0xf9, 0x9d, 0x73, 0x28, 0x37, 0x34, 0x30, 0x2c, 0xc7, 0xb3,
  0xdd, 0x2e, 0x31, 0xae, 0x32, 0x32, 0x0a, 0xb7, 0x5d, 0xaa, 0x8e, 0x29,
  0x6d, 0x32, 0xf8, 0x2f, 0x48, 0x35, 0x6b, 0xa5, 0x6f, 0xb1, 0xd0, 0x2d,
  0x84, 0x31, 0x09, 0x34, 0xb0, 0xb3, 0x80, 0x2a, 0x92, 0x32, 0x62, 0x31,
  0xea, 0x34, 0x06, 0x30, 0x5a, 0x30, 0xcd, 0xa8, 0xec, 0x32, 0xb0, 0x2b,
  0x40, 0xa3, 0x1e, 0xb5, 0x66, 0xae, 0xf7, 0xad, 0x0a, 0x25, 0x20, 0xb5,
  0x56, 0xb2, 0x99, 0xb7, 0x15, 0x97, 0x79, 0x33, 0xcc, 0x2f, 0x7a, 0x33,
  0x9f, 0x2c, 0xc3, 0x2e, 0x53, 0x30, 0x59, 0x31, 0x57, 0xb0, 0x9b, 0xb5,
  0x42, 0xb4, 0xd2, 0xb1, 0xf1, 0x32, 0x60, 0x2f, 0x92, 0xa6, 0x4c, 0x33,
  0xc1, 0x26, 0x3b, 0xa8, 0x5a, 0x36, 0xe8, 0x2c, 0x45, 0xb1, 0x5a, 0xb2,
  0xf3, 0x30, 0xe6, 0x35, 0x70, 0x21, 0xd1, 0x34, 0x0a, 0xb3, 0x06, 0x2f,
  0x02, 0x33, 0x57, 0xa5, 0xb0, 0xb0, 0x8e, 0x35, 0x93, 0x36, 0x23, 0x28,
  0xd6, 0x30, 0x1b, 0xb2, 0x21, 0xad, 0x33, 0xb6, 0x1e, 0xad, 0xcc, 0x2f,
  0x0f, 0xb0, 0x34, 0x9e, 0x17, 0x2f, 0x54, 0x38, 0xff, 0x33, 0x4a, 0x2d,
  0x04, 0x31, 0x47, 0x22, 0xca, 0xb3, 0xc8, 0xae, 0x5f, 0x21, 0xd7, 0xae,
  0xf0, 0x29, 0xb1, 0x34, 0xdd, 0x34, 0x3f, 0x2e, 0xba, 0x28, 0x3b, 0xae,
  0xde, 0x33, 0xfd, 0x28, 0x05, 0x32, 0x72, 0xb0, 0x3c, 0x35, 0xe0, 0xb5,
  0xc4, 0xaa, 0x6b, 0xb5, 0x86, 0x2b, 0x3a, 0x2d, 0xef, 0xa9, 0xba, 0xa4,
  0xca, 0x27, 0x61, 0x2d, 0xfb, 0xb2, 0x2d, 0x31, 0x0b, 0xb0, 0xc9, 0x2e,
  0x03, 0xb3, 0x17, 0x2f, 0x48, 0x35, 0x17, 0x31, 0xaa, 0xaf, 0x19, 0x31,
  0x46, 0x35, 0x3a, 0xad, 0x91, 0x31, 0xb7, 0xb5, 0xcb, 0x31, 0xb5, 0xb4,
  0x60, 0x2f, 0x5c, 0x34, 0x17, 0xa9, 0x26, 0xa2, 0x37, 0x32, 0x7b, 0x33,
  0xea, 0x2e, 0x19, 0xb1, 0x35, 0x30, 0xfe, 0x2e, 0x0f, 0xab, 0xa6, 0xb0,
  0xa1, 0x30, 0x8f, 0xae, 0x31, 0x34, 0xb9, 0xb4, 0x0c, 0x34, 0x46, 0xb1,
  0x0d, 0xa6, 0xcd, 0x24, 0x95, 0x36, 0x42, 0xb3, 0x35, 0xae, 0x7f, 0xae,
  0xa1, 0x28, 0x69, 0x29, 0xaf, 0xb5, 0xc7, 0xb1, 0x8d, 0xb3, 0x06, 0xad,
  0xf6, 0xae, 0x92, 0x35, 0x57, 0x2f, 0x07, 0x31, 0x83, 0x33, 0xa4, 0x2a,
  0x2d, 0xb2, 0x80, 0xb3, 0xfc, 0xac, 0xa4, 0x2d, 0xf7, 0xaa, 0x29, 0xad,
  0x81, 0x31, 0x82, 0x31, 0x2c, 0x36, 0x23, 0xa8, 0x5e, 0x33, 0x5f, 0xb3,
  0xd2, 0x35, 0xfb, 0xae, 0x20, 0xb0, 0x71, 0x29, 0x03, 0x35, 0x4f, 0x34,
  0x1e, 0x30, 0x74, 0x30, 0x22, 0xb1, 0x0f, 0x31, 0xd8, 0xb4, 0xe1, 0x2b,
  0x4b, 0x33, 0x4f, 0x9a, 0x51, 0xb2, 0x2e, 0x32, 0xc0, 0x34, 0x56, 0x30,
  0x5f, 0x31, 0x5f, 0xb3, 0x38, 0xb0, 0x16, 0xb5, 0x76, 0x2e, 0xbc, 0x2b,
  0x2d, 0x33, 0x26, 0xa9, 0x80, 0x33, 0x48, 0x30, 0xaa, 0x20, 0x4b, 0xb2,
  0x25, 0x32, 0xa3, 0x31, 0xbf, 0x33, 0xde, 0xb1, 0x5b, 0x2b, 0x10, 0x35,
  0xd9, 0xaa, 0x53, 0x30, 0xbd, 0x27, 0x76, 0xb4, 0x05, 0xb2, 0x22, 0xaf,
  0x39, 0xad, 0x7a, 0x34, 0x59, 0xb0, 0xed, 0x31, 0x5a, 0x2d, 0xca, 0x33,
  0x39, 0x2f, 0xf5, 0x31, 0xd6, 0xb2, 0x58, 0xb2, 0x83, 0x32, 0xe5, 0x32,
  0x78, 0x2d, 0x2d, 0x26, 0xfa, 0xad, 0x98, 0x2f, 0x9c, 0x33, 0x3d, 0xb5,
  0xf7, 0xb1, 0x12, 0xac, 0x30, 0x31, 0xe8, 0x35, 0x40, 0x33, 0x05, 0xae,
  0x39, 0x2d, 0xb2, 0xa8, 0x0e, 0x2b, 0x79, 0x35, 0x20, 0xa8, 0x67, 0x1a,
  0xe2, 0xb1, 0x82, 0x31, 0x23, 0x33, 0x63, 0xaf, 0x10, 0xb1, 0xfb, 0x32,
  0x9f, 0x34, 0x87, 0x24, 0x88, 0x33, 0x5b, 0xb3, 0xe3, 0xac, 0x4d, 0x31,
  0xe5, 0x21, 0x7c, 0x30, 0x07, 0xac, 0xc7, 0x32, 0x79, 0xb0, 0xf8, 0xad,
  0xff, 0x32, 0xd4, 0xa9, 0xae, 0x36, 0x48, 0x32, 0x81, 0xb3, 0xad, 0xb3,
  0x89, 0xad, 0xb4, 0x30, 0xff, 0x32, 0x64, 0x1f, 0xe8, 0x29, 0x7a, 0x35,
  0xa7, 0x27, 0x85, 0x36, 0x5b, 0x32, 0x84, 0xb5, 0x0d, 0xaf, 0xa5, 0xac,
  0x04, 0xa1, 0x39, 0x31, 0x88, 0xaf, 0xe3, 0x30, 0x3e, 0xad, 0x13, 0x2d,
  0x8d, 0x35, 0xbb, 0x33, 0x6f, 0x2d, 0x7b, 0x29, 0xa9, 0xb0, 0x34, 0x32,
  0x33, 0x31, 0x0e, 0xb3, 0x7c, 0xb7, 0x1f, 0xb5, 0x25, 0x31, 0xd2, 0x2d,
  0xed, 0xb0, 0x74, 0x37, 0x4f, 0x2f, 0xc5, 0x2a, 0xcf, 0x31, 0xd7, 0xb0,
  0x0f, 0x32, 0x17, 0xb5, 0x00, 0xb8, 0xa2, 0x30, 0x9f, 0xb0, 0x09, 0xa6,
  0xd1, 0x34, 0x6c, 0x30, 0x2e, 0x2f, 0xa3, 0xa8, 0x88, 0xb2, 0x3d, 0xa6,
  0x11, 0xb5, 0x44, 0xb7, 0xa8, 0x31, 0x11, 0xb4, 0x3b, 0xa7, 0xd2, 0x20,
  0x6e, 0x33, 0xb2, 0x30, 0xdc, 0x30, 0x76, 0xb1, 0x65, 0x30, 0x13, 0xb0,
  0xcc, 0x33, 0xd8, 0xb5, 0x0b, 0xaa, 0xdb, 0x35, 0xab, 0x2e, 0x9f, 0x2c,
  0x4e, 0x2f, 0x32, 0xb0, 0x34, 0x33, 0x0d, 0xb5, 0xf5, 0xb2, 0xfa, 0x98,
  0x5f, 0xb4, 0x63, 0x34, 0xc4, 0x35, 0x90, 0x32, 0x15, 0xa5, 0xdf, 0x29,
  0x60, 0x33, 0x35, 0x34, 0x37, 0xb0, 0x01, 0x2d, 0x3c, 0x2f, 0xe3, 0x26,
  0x29, 0x28, 0xad, 0x26, 0x81, 0x35, 0xfa, 0xae, 0x57, 0xb0, 0xc9, 0x2f,
  0x98, 0xab, 0x6b, 0xb0, 0xef, 0x30, 0xe6, 0x33, 0xfc, 0x2c, 0xf5, 0x2e,
  0x20, 0x28, 0xaa, 0x37, 0x86, 0x29, 0xb9, 0x34, 0x79, 0x34, 0x1a, 0xad,
  0xf4, 0x34, 0x82, 0x2e, 0x44, 0x22, 0xb4, 0xa5, 0xbb, 0x32, 0x12, 0xb0,
  0x74, 0x34, 0x18, 0xb2, 0x1b, 0x34, 0x4d, 0xa9, 0x9e, 0x2c, 0x5b, 0x35,
  0x35, 0xaa, 0x24, 0x2c, 0x4d, 0xab, 0x4a, 0x14, 0xf2, 0xb5, 0x28, 0x38,
  0x6d, 0x9c, 0xb3, 0xb1, 0x59, 0x34, 0x3e, 0xb1, 0xd0, 0x32, 0x82, 0x2f,
  0xc9, 0xad, 0x59, 0x2d, 0xa9, 0x28, 0x70, 0xb2, 0xbd, 0x33, 0xa5, 0xab,
  0xbf, 0x31, 0x31, 0x34, 0xa3, 0x35, 0xc9, 0xb3, 0x88, 0x2e, 0x49, 0x31,
  0x4f, 0xb3, 0x6c, 0x30, 0xba, 0xb0, 0x19, 0x9f, 0xc8, 0x30, 0xe0, 0x2f,
  0xc3, 0x34, 0x7a, 0x33, 0x4b, 0x29, 0x91, 0xa7, 0x7e, 0x31, 0xc1, 0xab,
  0x94, 0x2f, 0x20, 0xa0, 0xfa, 0xa1, 0x2d, 0xaf, 0x64, 0x2b, 0xd3, 0x35,
  0x7f, 0x34, 0x5a, 0x2f, 0x22, 0xee, 0xff, 0xff, 0x04, 0x00, 0x00, 0x00,
  0xd6, 0x02, 0x00, 0x00, 0xba, 0xa9, 0x52, 0xb1, 0x05, 0xb2, 0x13, 0x38,
  0xcb, 0xb4, 0x8e, 0x35, 0x35, 0x34, 0x65, 0x33, 0x3c, 0xb2, 0x01, 0x2c,
  0x08, 0xb5, 0x45, 0x35, 0xa9, 0x32, 0x3b, 0x33, 0xb8, 0x37, 0x9f, 0xa4,
  0xc1, 0x2f, 0x72, 0x9f, 0x70, 0xa8, 0x3e, 0x33, 0xb7, 0x29, 0x8f, 0x31,
  0x42, 0x34, 0x50, 0xab, 0x3b, 0x30, 0xd2, 0x37, 0xb5, 0xb4, 0xd8, 0x31,
  0xb2, 0x34, 0x11, 0xb4, 0xb5, 0xac, 0xb7, 0x32, 0x8d, 0xb3, 0xa4, 0xb1,
  0x41, 0xa9, 0x22, 0xb1, 0x2e, 0xae, 0x47, 0x34, 0x3c, 0x30, 0xcd, 0x28,
  0xb8, 0xb1, 0x3c, 0x2e, 0x99, 0x35, 0x9f, 0xb3, 0xf7, 0xb3, 0x01, 0xad,
  0x5f, 0xb4, 0xfd, 0x29, 0xab, 0xac, 0x29, 0xb3, 0x07, 0x32, 0x38, 0xb1,
  0xce, 0x28, 0xe5, 0x34, 0x52, 0xb6, 0x90, 0x34, 0x79, 0x2a, 0xa4, 0xa9,
  0x9b, 0x2f, 0xb2, 0x32, 0xf6, 0x32, 0x8d, 0x32, 0x39, 0x2f, 0x3c, 0xb3,
  0x57, 0x35, 0xce, 0xb5, 0x07, 0xb3, 0xa4, 0xac, 0x4e, 0xb6, 0xff, 0x33,
  0x87, 0x34, 0x8a, 0xb1, 0xb9, 0xaa, 0x35, 0x2d, 0x82, 0x31, 0x0c, 0xa8,
  0xd5, 0xa8, 0x2d, 0xb0, 0x0c, 0x35, 0x0a, 0xad, 0xab, 0x36, 0x16, 0x28,
  0x41, 0xaa, 0x99, 0xaf, 0x7f, 0x1f, 0xa0, 0x31, 0x73, 0x1e, 0xae, 0x14,
  0xf6, 0x2e, 0xb8, 0x34, 0xca, 0xb5, 0x70, 0x37, 0xf9, 0x30, 0x3f, 0x2c,
  0x64, 0xb6, 0xf6, 0x30, 0x51, 0xac, 0x08, 0xb2, 0xa2, 0x32, 0x88, 0xb4,
  0x62, 0x34, 0x58, 0x36, 0x18, 0xb0, 0xf6, 0x2d, 0x0f, 0x35, 0xd3, 0xaa,
  0x57, 0x32, 0x86, 0x2c, 0xc7, 0x2b, 0x32, 0x33, 0xb5, 0xb6, 0xec, 0xb1,
  0x7f, 0x23, 0x8e, 0x31, 0x5e, 0xa8, 0xf8, 0x33, 0x11, 0xb3, 0x91, 0xb2,
  0x9f, 0x2d, 0x06, 0x33, 0x10, 0xae, 0x24, 0xb0, 0x3c, 0xb4, 0x5e, 0x27,
  0x97, 0x2b, 0xa3, 0xa7, 0xa9, 0xb1, 0x62, 0xb2, 0xf1, 0xb7, 0xca, 0x2c,
  0x74, 0x30, 0x38, 0x2e, 0xc6, 0x2a, 0x54, 0x2b, 0x77, 0x32, 0x32, 0x33,
  0x3e, 0x29, 0xf8, 0x32, 0x16, 0xb0, 0x5d, 0x0e, 0x4a, 0xb5, 0x99, 0x2d,
  0xb3, 0xb7, 0x8c, 0x34, 0x08, 0x34, 0x91, 0x29, 0x30, 0xad, 0x45, 0x32,
  0x2a, 0x32, 0x6c, 0xb0, 0xd7, 0x2f, 0xb5, 0xad, 0xc6, 0xa8, 0xf1, 0xb7,
  0xf0, 0xaf, 0x7d, 0x30, 0x4f, 0x30, 0xfc, 0x34, 0x46, 0x34, 0xec, 0xb1,
  0x9f, 0xb4, 0x9c, 0x31, 0x0c, 0xb7, 0x97, 0x30, 0xae, 0xb5, 0x68, 0xb2,
  0xc5, 0xb2, 0xe4, 0xaf, 0x09, 0xb9, 0xb4, 0x2c, 0x33, 0xb8, 0xcf, 0xaa,
  0x00, 0x31, 0x8c, 0x33, 0xc6, 0xad, 0x6f, 0x35, 0xd6, 0xb4, 0x2c, 0xb6,
  0xc3, 0xa6, 0xb5, 0xb6, 0xe8, 0xae, 0xd1, 0xaf, 0x79, 0xb1, 0x83, 0xb0,
  0x17, 0x31, 0x85, 0x1d, 0xee, 0x1d, 0xb2, 0xaf, 0xed, 0xad, 0x45, 0x30,
  0x8f, 0x2c, 0x8a, 0xad, 0xae, 0x2d, 0xd4, 0x31, 0xcc, 0xb1, 0xc8, 0x34,
  0xc2, 0x2d, 0xb5, 0x34, 0x6c, 0xb2, 0x7c, 0xab, 0x81, 0x34, 0x0b, 0xa8,
  0x06, 0x34, 0xc4, 0x2f, 0x5e, 0xb1, 0x24, 0x32, 0x58, 0xb2, 0x30, 0xad,
  0x44, 0x35, 0xc5, 0xae, 0xd9, 0xae, 0xb1, 0x29, 0x97, 0xb6, 0x93, 0x30,
  0x6b, 0x34, 0xd3, 0x2b, 0x43, 0x37, 0xe1, 0x9e, 0x5b, 0x2b, 0x71, 0x33,
  0x28, 0xb4, 0x35, 0x33, 0x89, 0x36, 0xba, 0xb3, 0x67, 0x30, 0xec, 0x34,
  0x12, 0x34, 0xfd, 0x35, 0x59, 0xa5, 0xa0, 0xae, 0x7a, 0x26, 0x97, 0x33,
  0xc2, 0x2c, 0x69, 0xb6, 0xc8, 0xa8, 0x45, 0x32, 0x75, 0x32, 0xd5, 0x2b,
  0xa9, 0x37, 0x36, 0x35, 0x08, 0x9d, 0x53, 0xac, 0xd5, 0x2f, 0x19, 0x32,
  0xbb, 0xb2, 0x43, 0x2e, 0x03, 0x34, 0x48, 0x29, 0x3f, 0x31, 0x00, 0x32,
  0x7c, 0x35, 0x96, 0x30, 0x15, 0x2d, 0xfc, 0x34, 0xfb, 0x35, 0xf9, 0xb6,
  0x9d, 0x2d, 0xf5, 0xad, 0xea, 0xaa, 0xce, 0x2b, 0x3d, 0x34, 0x35, 0x35,
  0x17, 0x30, 0x4b, 0x2e, 0x63, 0xb4, 0xbb, 0x30, 0xe7, 0xb1, 0xd7, 0xaa,
  0x25, 0x37, 0x09, 0x2e, 0x8b, 0x2c, 0x15, 0x34, 0x76, 0x30, 0x68, 0xb2,
  0xce, 0x2e, 0x95, 0x32, 0xb4, 0xb3, 0x6f, 0x2f, 0x3f, 0x30, 0x0f, 0x35,
  0x98, 0xb1, 0xf3, 0x32, 0xf1, 0x22, 0x1e, 0x31, 0x1c, 0x31, 0xf0, 0x21,
  0x77, 0xa1, 0xb6, 0x2c, 0xdd, 0x31, 0xe7, 0xac, 0x83, 0x36, 0x1e, 0xb5,
  0xef, 0x32, 0x46, 0xb1, 0x7e, 0x30, 0x00, 0x35, 0xcb, 0x32, 0xd2, 0xac,
  0x32, 0xb2, 0xbb, 0xb4, 0xe3, 0xb4, 0x0c, 0xac, 0x79, 0x35, 0xcb, 0x33,
  0xdb, 0xb1, 0x39, 0xb8, 0x6e, 0x35, 0x0e, 0xab, 0x15, 0x36, 0x37, 0x27,
  0x14, 0xb4, 0x6c, 0xb4, 0xbd, 0x34, 0x79, 0x35, 0xc1, 0x32, 0xdd, 0xa9,
  0xed, 0xb6, 0xed, 0x36, 0x9f, 0x19, 0xe1, 0xac, 0x4d, 0x34, 0xe1, 0xaa,
  0xfd, 0xb2, 0xc3, 0x38, 0x80, 0x2c, 0x11, 0x2c, 0x63, 0x31, 0x39, 0x29,
  0xc7, 0x2c, 0x4e, 0x34, 0x57, 0x25, 0xd4, 0xb0, 0x1b, 0x33, 0x7c, 0xa7,
  0x0a, 0x34, 0x0d, 0xae, 0x14, 0x37, 0x47, 0xb4, 0xc3, 0x32, 0x10, 0xb0,
  0xf9, 0x98, 0x70, 0x2b, 0x96, 0xad, 0x6e, 0x34, 0x01, 0xb8, 0x33, 0x2a,
  0xcc, 0xae, 0xa3, 0x33, 0x66, 0xb4, 0x13, 0x28, 0xfa, 0xb1, 0x97, 0x2e,
  0x4c, 0xaf, 0xd9, 0x2c, 0xa1, 0x2e, 0x06, 0xb2, 0xc3, 0x33, 0x08, 0x2d,
  0x61, 0x35, 0x14, 0xb6, 0x37, 0xb5, 0x89, 0xaa, 0x35, 0xad, 0x00, 0x00,
  0x06, 0xf1, 0xff, 0xff, 0x04, 0x00, 0x00, 0x00, 0x8c, 0x01, 0x00, 0x00,
  0x82, 0x34, 0x6b, 0xb2, 0x90, 0xab, 0x91, 0xb6, 0xfd, 0x2f, 0xcb, 0xa8,
  0x71, 0x26, 0x13, 0xb4, 0xa1, 0xb5, 0xa8, 0xb6, 0x40, 0xad, 0x2c, 0xb5,
  0xe2, 0x25, 0x37, 0xb4, 0xc2, 0x2b, 0x14, 0xb1, 0xc2, 0x32, 0xe1, 0xb5,
  0x4b, 0xb4, 0xa9, 0xb5, 0x0c, 0xb5, 0xc1, 0x18, 0xcc, 0xad, 0x35, 0x35,
  0x10, 0x2e, 0xe6, 0xb1, 0xd3, 0xae, 0xdf, 0x31, 0x71, 0x2c, 0xd3, 0x34,
  0xd5, 0xa5, 0x17, 0xb7, 0x65, 0xb6, 0xaa, 0x2c, 0x93, 0xb4, 0x98, 0x2a,
  0xbe, 0xb6, 0xa3, 0xb5, 0x52, 0x30, 0x97, 0x2f, 0x25, 0x34, 0x0a, 0xb8,
  0xe0, 0xb0, 0x7f, 0x9c, 0xda, 0xa9, 0xb9, 0x31, 0x09, 0x34, 0x7e, 0xb7,
  0x22, 0xb5, 0xce, 0x36, 0x38, 0x32, 0xfc, 0xae, 0x8c, 0x31, 0x4c, 0xaf,
  0x2d, 0x30, 0x81, 0x2e, 0xfc, 0xb2, 0xa7, 0xad, 0x16, 0x35, 0x5c, 0x37,
  0xc9, 0x32, 0x57, 0xb5, 0x7f, 0xa7, 0x3d, 0x30, 0xee, 0x33, 0xd4, 0x34,
  0xd7, 0xb7, 0x13, 0xb6, 0x11, 0xac, 0x18, 0xb1, 0xa7, 0x37, 0xf7, 0x35,
  0x61, 0xb4, 0x80, 0xb8, 0x8f, 0x34, 0x9c, 0xa8, 0x2f, 0xb2, 0xe9, 0xb4,
  0x31, 0x2c, 0x11, 0xb3, 0xb0, 0x34, 0x0a, 0x30, 0x94, 0x2c, 0x7b, 0xaf,
  0x2e, 0xac, 0x8d, 0xb2, 0x4a, 0xb4, 0x07, 0x36, 0x39, 0xb3, 0xd1, 0x34,
  0x1f, 0xa9, 0xc0, 0x31, 0xfa, 0xb6, 0x1a, 0xb5, 0x6c, 0x37, 0xaf, 0xb2,
  0x4d, 0xad, 0xa1, 0xa7, 0x69, 0xb6, 0x9f, 0xb1, 0x4b, 0x38, 0xde, 0xb1,
  0x8c, 0xb2, 0xd3, 0x1e, 0xbe, 0xb0, 0xca, 0x2d, 0x19, 0xae, 0x6c, 0xac,
  0x57, 0xb6, 0x1a, 0x31, 0x37, 0xb0, 0x8b, 0xb6, 0x08, 0xb3, 0xfa, 0xb8,
  0xb4, 0xb4, 0x30, 0x34, 0xca, 0xac, 0x3a, 0xb4, 0x3c, 0xb2, 0xd9, 0xb8,
  0x37, 0x2c, 0xdd, 0xb5, 0x89, 0x30, 0x62, 0xb1, 0xd2, 0xa1, 0x6a, 0xb7,
  0x0c, 0xb4, 0x03, 0xb5, 0x2f, 0xb7, 0x0a, 0xb2, 0xe2, 0xb3, 0xbf, 0x31,
  0x18, 0xb5, 0x1e, 0xb3, 0xd4, 0xb5, 0x4c, 0x1f, 0x50, 0xb5, 0xcc, 0xab,
  0x2d, 0x2d, 0x0f, 0xb2, 0x6a, 0xb8, 0x99, 0x98, 0x0d, 0xb4, 0x0a, 0xb4,
  0x7d, 0x34, 0x67, 0xb1, 0xa0, 0x34, 0x49, 0xb5, 0x16, 0xb5, 0xa1, 0x2c,
  0xab, 0xae, 0x18, 0x31, 0x4a, 0x34, 0xe9, 0xae, 0x64, 0xb8, 0x54, 0x30,
  0xff, 0x34, 0xee, 0x31, 0x85, 0x31, 0xc2, 0xaf, 0xbd, 0xb8, 0xac, 0x27,
  0x38, 0xb6, 0x3b, 0x38, 0x7d, 0x31, 0xb1, 0xa3, 0x0a, 0x36, 0xc3, 0x31,
  0xec, 0x2d, 0x01, 0x38, 0xb8, 0x35, 0x3a, 0xae, 0x33, 0x35, 0x34, 0x2e,
  0x24, 0x33, 0x4d, 0x2a, 0xb0, 0xb0, 0xec, 0xb1, 0xac, 0x35, 0x1f, 0xb4,
  0xb2, 0x2f, 0x40, 0xb2, 0x1f, 0x34, 0x6c, 0x32, 0x76, 0xb7, 0x3a, 0x30,
  0x85, 0xb0, 0x64, 0x2b, 0xd0, 0x34, 0x17, 0x2f, 0xc8, 0x2b, 0x55, 0x31,
  0x9a, 0xb6, 0xf0, 0x32, 0x71, 0xb0, 0x94, 0x32, 0x6b, 0xb4, 0x0a, 0xb5,
  0x9e, 0xf2, 0xff, 0xff, 0x04, 0x00, 0x00, 0x00, 0x78, 0x04, 0x00, 0x00,
  0x52, 0x35, 0x12, 0xae, 0x1d, 0x35, 0x1e, 0xb1, 0xfe, 0xac, 0x3a, 0xaf,
  0xb4, 0x2f, 0xe7, 0x2a, 0xac, 0xb5, 0x6d, 0xad, 0x67, 0xae, 0x28, 0x28,
  0x1b, 0xac, 0x20, 0xb8, 0xdb, 0x2c, 0xb5, 0xb0, 0x3c, 0xae, 0x58, 0x2f,
  0x48, 0x34, 0x00, 0xb4, 0xd7, 0xab, 0x99, 0xad, 0x13, 0xb4, 0x40, 0xa9,
  0xb7, 0x36, 0xd1, 0x31, 0x24, 0xaf, 0x13, 0xb5, 0x76, 0x30, 0x72, 0xa0,
  0x17, 0xb5, 0x8e, 0xae, 0x16, 0xae, 0x10, 0xb2, 0x00, 0x36, 0x17, 0xb0,
  0x0a, 0xb9, 0x1f, 0x31, 0x95, 0xa8, 0x53, 0xb2, 0x0d, 0x34, 0x0e, 0xb0,
  0xe8, 0xac, 0x74, 0xb0, 0x98, 0x34, 0x42, 0x34, 0x40, 0xb0, 0xc4, 0x35,
  0xf6, 0xaf, 0x74, 0xa4, 0x5a, 0x32, 0x92, 0xaf, 0x00, 0x33, 0xc5, 0x2d,
  0x12, 0xad, 0x3c, 0xb5, 0xea, 0x35, 0x2c, 0xb2, 0xa9, 0xaa, 0x89, 0x33,
  0xd3, 0xb9, 0x17, 0xb4, 0x3f, 0x26, 0x78, 0xb4, 0x53, 0xa7, 0xe4, 0xaa,
  0xde, 0xb4, 0xbd, 0xb7, 0xa8, 0x33, 0x5d, 0x32, 0x39, 0xb3, 0xd8, 0x2e,
  0x0e, 0x2a, 0x66, 0x99, 0xb6, 0xb3, 0xb2, 0xac, 0x2a, 0xb5, 0xea, 0xa2,
  0x4a, 0x36, 0x1f, 0xb0, 0x23, 0x2f, 0x16, 0x34, 0xe6, 0xb0, 0x64, 0xb0,
  0x0d, 0x30, 0x81, 0xb3, 0x7b, 0xad, 0x5b, 0x33, 0x8c, 0x29, 0xc7, 0xb0,
  0x28, 0xb1, 0x68, 0xb8, 0xab, 0x33, 0x95, 0xb4, 0x1f, 0x2a, 0xc5, 0x34,
  0xcd, 0x2f, 0x0e, 0x35, 0xb3, 0xb1, 0x7e, 0xb6, 0xd6, 0xa9, 0x23, 0x22,
  0x2b, 0x34, 0xad, 0x19, 0xdc, 0x2d, 0x38, 0xb0, 0x46, 0xac, 0x0b, 0xb4,
  0xe1, 0xae, 0xed, 0xb1, 0xa2, 0xb4, 0x0c, 0x33, 0x3c, 0x31, 0x21, 0xaa,
  0xc1, 0x35, 0x11, 0xb6, 0x76, 0x2d, 0x10, 0x38, 0x06, 0xb5, 0x60, 0x2c,
  0x65, 0x24, 0x62, 0x32, 0xfa, 0xb2, 0x79, 0xac, 0xc1, 0xb0, 0xc2, 0x38,
  0xe9, 0x2e, 0x4c, 0xb3, 0x85, 0x2e, 0x5f, 0x2a, 0xa4, 0xae, 0x64, 0xb4,
  0x99, 0x31, 0x1e, 0x2b, 0x9a, 0x33, 0x15, 0xb0, 0x23, 0xae, 0x0e, 0xb3,
  0x8a, 0x34, 0x94, 0x34, 0x65, 0x35, 0x7d, 0xad, 0xac, 0xb0, 0xe3, 0x31,
  0xbb, 0xb0, 0x2a, 0xa9, 0xed, 0x31, 0x19, 0xb4, 0xae, 0xb6, 0x15, 0xb2,
  0xd3, 0x2f, 0x9b, 0x33, 0x6f, 0xb7, 0xe7, 0xa8, 0x8a, 0xb1, 0xad, 0x34,
  0xe0, 0x33, 0xb9, 0xb1, 0x8f, 0x30, 0x7e, 0x28, 0x3c, 0xa9, 0x5e, 0xb1,
  0x2c, 0xb4, 0xef, 0xb1, 0x2d, 0xb1, 0x9d, 0xab, 0x42, 0xae, 0xe0, 0x2c,
  0xa6, 0x34, 0xbb, 0xb4, 0xcc, 0xb2, 0xfe, 0x31, 0x58, 0xb4, 0x6b, 0x09,
  0x72, 0x26, 0x99, 0x31, 0x0e, 0xb4, 0xdc, 0x33, 0x40, 0xb4, 0xf7, 0x33,
  0x08, 0xb8, 0x5d, 0xae, 0x82, 0x2e, 0xd7, 0xb0, 0x7d, 0xb0, 0xfd, 0xb1,
  0x27, 0x28, 0x17, 0xb1, 0x42, 0x36, 0x8b, 0x1b, 0x08, 0x35, 0x5b, 0x39,
  0x09, 0xb5, 0xa3, 0x31, 0x7e, 0xb4, 0xea, 0xba, 0x23, 0x31, 0x11, 0x35,
  0xce, 0xb7, 0x32, 0x2e, 0x45, 0x2f, 0x14, 0x35, 0xbc, 0x26, 0xbd, 0x33,
  0xd5, 0xb4, 0xc0, 0xa9, 0x3a, 0xa9, 0x39, 0xb8, 0x10, 0x31, 0xa9, 0xb2,
  0x41, 0x35, 0x9c, 0xae, 0x49, 0x31, 0x83, 0xb2, 0x6b, 0x37, 0x70, 0xb6,
  0x59, 0xb3, 0xe4, 0xb0, 0x3a, 0xad, 0x8f, 0x27, 0xf6, 0xb2, 0x8d, 0xb0,
  0x92, 0xb5, 0xe0, 0x24, 0x4f, 0x36, 0x38, 0xb5, 0x4a, 0xaf, 0xef, 0xb6,
  0x49, 0xa4, 0xf0, 0xb2, 0x65, 0x2b, 0x3b, 0xb4, 0x02, 0xb5, 0xda, 0xa9,
  0x0c, 0x9b, 0x19, 0x2e, 0xfa, 0xb0, 0xd1, 0xa1, 0xe9, 0x33, 0x82, 0xb4,
  0xbc, 0x34, 0x06, 0x30, 0x72, 0x30, 0x41, 0xb2, 0x1b, 0xae, 0xeb, 0x35,
  0x9c, 0xb0, 0xdb, 0x33, 0xa2, 0xb9, 0x31, 0x27, 0x7d, 0x2f, 0x9b, 0x35,
  0xe6, 0xb6, 0xac, 0xb4, 0x62, 0x32, 0x50, 0xb3, 0xb5, 0xb2, 0x2f, 0xb8,
  0x51, 0xb8, 0xd5, 0x36, 0xea, 0xb4, 0x7a, 0xb9, 0x65, 0x2f, 0xff, 0x2b,
  0xbe, 0xb6, 0x6f, 0xb4, 0xaa, 0xad, 0x4a, 0xa8, 0x68, 0x30, 0xb8, 0x20,
  0x39, 0x20, 0xe8, 0x9d, 0x7d, 0xb5, 0x81, 0xb2, 0x01, 0x29, 0x13, 0x31,
  0x68, 0x31, 0xa3, 0x2f, 0x8f, 0xb3, 0x8f, 0xb3, 0xbc, 0x32, 0xc3, 0x30,
  0xb0, 0xb6, 0x62, 0xac, 0x10, 0x34, 0xab, 0xb0, 0x9e, 0xae, 0x68, 0x33,
  0x90, 0xb0, 0x5a, 0xb4, 0x6b, 0xa5, 0x2a, 0x35, 0xec, 0x34, 0xad, 0x34,
  0x32, 0xac, 0x0b, 0xb5, 0x04, 0xa6, 0x2f, 0x35, 0xb5, 0xae, 0x5c, 0xb3,
  0xbf, 0xac, 0x92, 0xb6, 0x62, 0x2d, 0xef, 0x2e, 0x0b, 0xb8, 0x8c, 0x31,
  0xa4, 0x31, 0xca, 0xb3, 0x87, 0xac, 0x87, 0xb2, 0x2d, 0xb4, 0xe3, 0xad,
  0x26, 0x2b, 0xf4, 0xb0, 0xc2, 0x32, 0xe9, 0xaf, 0x47, 0x38, 0x4c, 0xb4,
  0xa0, 0xb5, 0x7a, 0xaa, 0x20, 0xb4, 0xe8, 0x30, 0xe6, 0xa8, 0xdc, 0xad,
  0x8f, 0xa6, 0x57, 0x2c, 0x18, 0xa4, 0x68, 0x36, 0xaa, 0xb4, 0xb7, 0x2b,
  0x2e, 0xb7, 0xa9, 0xae, 0xad, 0x31, 0x16, 0xab, 0x31, 0x34, 0x48, 0x34,
  0xdf, 0xa8, 0xd9, 0xb3, 0x4e, 0xb0, 0x00, 0xab, 0xee, 0xb6, 0x89, 0xb2,
  0x1d, 0xaf, 0x1a, 0xb2, 0xec, 0xb2, 0xfc, 0xb4, 0xa5, 0x35, 0x06, 0xaa,
  0xb2, 0xb0, 0xe8, 0xa8, 0xfe, 0xb1, 0xb2, 0xb7, 0xaf, 0xb6, 0x1a, 0xb4,
  0x7b, 0xb0, 0xca, 0xb3, 0x78, 0x9f, 0x9a, 0xb2, 0x4a, 0x2f, 0xb6, 0x31,
  0xfc, 0x31, 0x18, 0x23, 0x41, 0xb0, 0x52, 0x36, 0x05, 0xb9, 0xe5, 0x32,
  0x42, 0xab, 0xe8, 0xb5, 0x7c, 0xa6, 0xd4, 0xb4, 0x8a, 0xb7, 0xb7, 0x34,
  0x0b, 0x34, 0x3d, 0x35, 0x61, 0xb1, 0x2f, 0xab, 0x3a, 0xb4, 0xbd, 0x31,
  0x57, 0x25, 0xb2, 0xb4, 0x99, 0xaf, 0xde, 0xb0, 0x76, 0xb2, 0x22, 0x32,
  0x70, 0xaf, 0x76, 0xb4, 0x5e, 0x33, 0xf6, 0xb1, 0xb6, 0xb0, 0x9a, 0x36,
  0x65, 0xaf, 0x4a, 0xb1, 0x59, 0x31, 0xb1, 0xb6, 0xd1, 0x33, 0x3c, 0x35,
  0x0f, 0xb4, 0x29, 0xb3, 0xe0, 0x26, 0xf2, 0x2c, 0xa1, 0xa9, 0xf8, 0xa7,
  0x5e, 0x34, 0x63, 0xb6, 0xe4, 0xb0, 0x34, 0x29, 0x09, 0xb1, 0xdc, 0xb0,
  0xc5, 0xa7, 0x97, 0x34, 0x3f, 0xb7, 0x23, 0xab, 0xbd, 0x32, 0x66, 0xb0,
  0xd4, 0xaa, 0x4a, 0xb0, 0x15, 0xb1, 0x19, 0x31, 0xd5, 0xac, 0xe3, 0x32,
  0xe2, 0xb0, 0x65, 0xa1, 0x41, 0xa9, 0x1f, 0x1d, 0x30, 0xb9, 0x2f, 0x36,
  0x7b, 0xb1, 0xb5, 0x34, 0x60, 0x2c, 0x8b, 0xad, 0xf6, 0x30, 0x9c, 0xb3,
  0xf2, 0xb8, 0x1b, 0x30, 0x48, 0xb8, 0x54, 0x30, 0xda, 0x34, 0x13, 0x38,
  0x0a, 0xa5, 0xe6, 0xb4, 0xdd, 0x2e, 0xeb, 0x36, 0x75, 0xb0, 0x95, 0x28,
  0x3b, 0xb5, 0x13, 0xa6, 0x15, 0xa8, 0x60, 0xb5, 0x71, 0x37, 0x07, 0x2a,
  0x5a, 0x34, 0x9a, 0xb0, 0xd7, 0x30, 0xaa, 0xb5, 0xf3, 0x32, 0x1a, 0x37,
  0x20, 0x2c, 0xce, 0x2d, 0x32, 0xb8, 0x00, 0xa8, 0xe3, 0x26, 0xca, 0xb2,
  0x09, 0x32, 0x50, 0xb4, 0x43, 0xb7, 0xae, 0xa6, 0x93, 0xb2, 0x00, 0x36,
  0x6f, 0x2a, 0x2c, 0xb4, 0x75, 0x28, 0x42, 0x28, 0x5d, 0xb6, 0x93, 0x18,
  0x7c, 0x31, 0xd1, 0xb5, 0x04, 0x9f, 0x9b, 0xb0, 0x69, 0x2b, 0x54, 0xae,
  0x4f, 0x32, 0xf8, 0xb4, 0x1d, 0xb3, 0xbf, 0xb3, 0x13, 0xb4, 0x39, 0x22,
  0x2e, 0xb4, 0x99, 0xb5, 0x4b, 0xb1, 0xcd, 0xaf, 0x92, 0x38, 0x62, 0x28,
  0x86, 0x2f, 0x98, 0x2d, 0xfa, 0xb4, 0x0e, 0x33, 0xb7, 0xb3, 0xb1, 0xb3,
  0x00, 0xb1, 0x80, 0x35, 0x95, 0x32, 0x6b, 0x36, 0x10, 0xb1, 0xba, 0x1f,
  0x7b, 0x2d, 0x09, 0xb4, 0xe0, 0xb4, 0x8a, 0xa8, 0xf7, 0x2f, 0xa6, 0xa8,
  0xfe, 0xaf, 0x7d, 0xb7, 0x25, 0x2a, 0xab, 0xb2, 0x2b, 0x31, 0xb6, 0x31,
  0x0f, 0xab, 0x4b, 0xb4, 0xc8, 0xb5, 0x1a, 0x31, 0xd5, 0xa9, 0xf2, 0x35,
  0xc0, 0x35, 0x6f, 0x31, 0xcb, 0xb6, 0x7d, 0x30, 0xd8, 0xb5, 0xbb, 0x35,
  0x0f, 0x30, 0x1d, 0x2f, 0xb0, 0xb1, 0x4c, 0xb5, 0x36, 0xb2, 0x7d, 0xb4,
  0xb8, 0xac, 0xc1, 0xb0, 0x39, 0xb2, 0x4a, 0x2d, 0xde, 0x37, 0x9b, 0x2c,
  0x8a, 0x29, 0x3d, 0x34, 0xa7, 0x34, 0xe5, 0x2c, 0x48, 0x34, 0x5c, 0xb1,
  0x8a, 0xb8, 0x49, 0xaf, 0x90, 0xac, 0xf5, 0x33, 0x51, 0xaf, 0x83, 0xb6,
  0x4a, 0xb4, 0x93, 0x36, 0xfd, 0x21, 0xd0, 0xb4, 0x41, 0xb4, 0xfe, 0xa6,
  0xa3, 0x31, 0x2e, 0x2b, 0xf7, 0xb3, 0x46, 0xb5, 0x67, 0xb0, 0x0d, 0x33,
  0x84, 0xb0, 0x8d, 0x2d, 0x65, 0xb3, 0xa8, 0x28, 0xd8, 0x33, 0xcb, 0xb5,
  0x9a, 0xb6, 0x0b, 0x35, 0x22, 0xf7, 0xff, 0xff, 0x04, 0x00, 0x00, 0x00,
  0x90, 0x07, 0x00, 0x00, 0x33, 0x27, 0x06, 0x35, 0x2a, 0x32, 0xd5, 0x35,
  0x1d, 0xb6, 0x08, 0xb0, 0x98, 0x2d, 0xaf, 0x2f, 0xe8, 0x2a, 0xbd, 0x33,
  0x3b, 0xb4, 0x87, 0x36, 0xde, 0xac, 0x41, 0x37, 0x70, 0x32, 0x9d, 0xae,
  0x59, 0x31, 0xb9, 0xb7, 0x6c, 0xaa, 0x74, 0x2d, 0xdb, 0x25, 0x1c, 0x2f,
  0xa8, 0xb7, 0x3b, 0xaf, 0xa7, 0xb5, 0x0b, 0xa6, 0xe3, 0xa5, 0x4c, 0x31,
  0x79, 0x34, 0x07, 0xb9, 0xaf, 0x35, 0x1b, 0xb1, 0x05, 0xb4, 0x44, 0x2e,
  0x8f, 0x2f, 0x8b, 0xa1, 0x79, 0x28, 0x0f, 0x26, 0xba, 0x2d, 0x0a, 0x30,
  0x12, 0xb9, 0xf8, 0x22, 0x4f, 0x33, 0x54, 0xb6, 0x72, 0xb1, 0xda, 0x35,
  0x0e, 0x2e, 0x31, 0x33, 0xdd, 0xb5, 0x7a, 0xb3, 0x0b, 0x9f, 0x84, 0x1e,
  0xa9, 0x29, 0xe5, 0x30, 0xc0, 0xb0, 0xea, 0xb4, 0x9c, 0xb4, 0x5a, 0xaf,
  0x98, 0xb5, 0x5b, 0x2e, 0x99, 0x30, 0xe4, 0xaf, 0x24, 0xb6, 0x18, 0x2b,
  0x9b, 0xb2, 0xb3, 0xb4, 0x99, 0x2e, 0x7c, 0x31, 0x66, 0x24, 0xb1, 0xb1,
  0xe8, 0x2d, 0x7f, 0x98, 0x03, 0xa8, 0x82, 0xac, 0x33, 0x1f, 0xdc, 0xb6,
  0x42, 0xaf, 0x3c, 0x34, 0x1b, 0xac, 0x15, 0x27, 0xc9, 0x2c, 0x42, 0x2e,
  0x38, 0x2f, 0x12, 0xb0, 0x73, 0xb6, 0xee, 0x35, 0x1d, 0xb3, 0x5c, 0xb5,
  0x7d, 0x36, 0x40, 0xb1, 0xc5, 0xb0, 0xd6, 0x30, 0x29, 0xb3, 0x6d, 0xb8,
  0x70, 0x36, 0x65, 0x26, 0x66, 0x29, 0x09, 0xae, 0x04, 0xb1, 0x26, 0xaf,
  0x77, 0x2d, 0x60, 0xb4, 0x0d, 0xaf, 0xd3, 0xa8, 0x13, 0x2d, 0x53, 0x2a,
  0x1c, 0xb3, 0x96, 0x37, 0x1d, 0x30, 0x01, 0x2c, 0xc2, 0x31, 0x16, 0x2c,
  0x98, 0x32, 0xce, 0xb6, 0x89, 0x26, 0x00, 0x2d, 0x55, 0x32, 0xab, 0x32,
  0x01, 0x2e, 0x59, 0x30, 0x61, 0x2a, 0x71, 0x33, 0x6a, 0x38, 0x44, 0x34,
  0x10, 0x36, 0xaa, 0xa8, 0xb8, 0xb4, 0x89, 0x29, 0xfb, 0x33, 0xf8, 0xa8,
  0x02, 0x30, 0x86, 0xb2, 0x60, 0xb4, 0xff, 0x31, 0x7f, 0x2c, 0x29, 0x38,
  0x41, 0xb2, 0x65, 0xb1, 0xcb, 0xae, 0x9c, 0xb0, 0x41, 0x32, 0xc4, 0xad,
  0x55, 0xad, 0x0b, 0x33, 0x8c, 0xb8, 0xfa, 0x17, 0xc7, 0x35, 0xd9, 0x2c,
  0x8a, 0x2e, 0x6b, 0xb1, 0x10, 0xb5, 0x0f, 0xb3, 0xf0, 0xb1, 0x7d, 0x2d,
  0x5d, 0xb4, 0xbf, 0x34, 0x0a, 0x32, 0x51, 0xb6, 0xce, 0x95, 0x2a, 0x31,
  0xc6, 0xa5, 0x61, 0xb0, 0x0e, 0x35, 0xe7, 0xb4, 0x1e, 0xb4, 0x3c, 0x31,
  0xc0, 0xb4, 0x5c, 0xad, 0x8c, 0xa7, 0xaa, 0xb5, 0x8d, 0xb1, 0x52, 0x35,
  0x3a, 0xac, 0x4a, 0xb1, 0x2d, 0xb0, 0x29, 0xb9, 0x74, 0x2d, 0x9f, 0x29,
  0x0c, 0x38, 0xa8, 0xb0, 0xb8, 0x34, 0x8b, 0x30, 0xc0, 0x31, 0xf4, 0x35,
  0x75, 0x31, 0x2b, 0x37, 0x25, 0x2f, 0xd7, 0xb2, 0x95, 0xa8, 0x9e, 0x34,
  0x3f, 0x9d, 0x5e, 0xad, 0x3a, 0x31, 0x4a, 0x33, 0x7d, 0x34, 0x32, 0x34,
  0x88, 0x2e, 0x01, 0x2d, 0x85, 0xac, 0x3a, 0xb4, 0x08, 0x34, 0xee, 0x2c,
  0xc7, 0xa8, 0x3d, 0x9c, 0xd8, 0x30, 0x7d, 0x2d, 0x6b, 0x2f, 0xb1, 0xa8,
  0xdd, 0xb1, 0xc8, 0x94, 0x39, 0x35, 0xfe, 0xac, 0x10, 0x34, 0x0e, 0x35,
  0xd2, 0x34, 0xe7, 0xb1, 0x0a, 0x9d, 0xda, 0x29, 0x31, 0x35, 0x7a, 0x2d,
  0x20, 0xa9, 0x2b, 0xb2, 0xef, 0x2d, 0xdb, 0x36, 0x60, 0xb4, 0x0b, 0xa9,
  0xe6, 0x2e, 0xd1, 0xb5, 0x57, 0x2e, 0xaa, 0xb4, 0xf2, 0xb4, 0x18, 0x32,
  0xb5, 0x34, 0x97, 0x2b, 0x67, 0x35, 0xb0, 0xb6, 0x9e, 0x2d, 0xbe, 0xb5,
  0x5a, 0xb5, 0x7f, 0x30, 0x0f, 0x36, 0xe9, 0x2f, 0x15, 0xab, 0xea, 0x2d,
  0x96, 0xa9, 0xe4, 0x2b, 0x4d, 0x2e, 0xee, 0x35, 0x6e, 0x34, 0xde, 0x2e,
  0xbd, 0x30, 0x1c, 0xb7, 0xf0, 0x34, 0xb7, 0x33, 0xaf, 0x25, 0x10, 0x2d,
  0xad, 0x31, 0x9c, 0xb1, 0x67, 0x31, 0x3f, 0x3a, 0x4f, 0xac, 0xe5, 0x2d,
  0x14, 0x38, 0xee, 0xa3, 0x2e, 0x32, 0xa5, 0xad, 0xa5, 0xb3, 0xbe, 0xb1,
  0xdc, 0xb1, 0x2f, 0xb5, 0x23, 0x32, 0x8b, 0x35, 0xd8, 0x2c, 0xb7, 0x34,
  0xaf, 0xa5, 0x20, 0xb4, 0xe7, 0xac, 0xb7, 0x2c, 0xe7, 0xb0, 0x86, 0x2d,
  0x5b, 0x2f, 0xfa, 0x33, 0x88, 0x2d, 0x70, 0x31, 0x0d, 0xb2, 0xe3, 0xb3,
  0x25, 0xa2, 0x8b, 0x2c, 0x43, 0xb0, 0xbb, 0xad, 0x27, 0x2e, 0x60, 0xb1,
  0x19, 0xb0, 0x37, 0x2d, 0x3e, 0x34, 0xc0, 0x2a, 0x71, 0x2c, 0x82, 0x30,
  0xb6, 0x36, 0xd9, 0x34, 0xb1, 0xb2, 0xb5, 0x2b, 0xfb, 0xac, 0x0f, 0xb0,
  0xeb, 0x2e, 0xe6, 0xb4, 0x4a, 0x17, 0x77, 0xb1, 0x47, 0x2c, 0xde, 0x32,
  0x2c, 0x24, 0x26, 0xb0, 0x1f, 0xb1, 0x4a, 0xa8, 0x3f, 0xad, 0x0e, 0x2f,
  0x02, 0x33, 0x28, 0x34, 0x7d, 0x35, 0xfd, 0x27, 0x4e, 0xa9, 0x96, 0x25,
  0x7d, 0xb1, 0x94, 0x2f, 0xa3, 0x33, 0xeb, 0x2c, 0x74, 0x34, 0x99, 0x25,
  0x54, 0x32, 0xaf, 0xad, 0xb0, 0xb8, 0x5c, 0xb5, 0x25, 0xb8, 0x22, 0xb1,
  0x59, 0xb2, 0xee, 0xa7, 0xc4, 0x2f, 0xa7, 0xb8, 0x12, 0x30, 0x0d, 0x34,
  0x60, 0x32, 0xc8, 0xa5, 0x13, 0xae, 0x62, 0x2a, 0x0a, 0xb1, 0x4d, 0xb4,
  0xfb, 0xb0, 0x44, 0xb4, 0xdc, 0xb0, 0x3d, 0xb7, 0x51, 0x30, 0x2b, 0x24,
  0xfc, 0xb2, 0x18, 0x2b, 0x81, 0x28, 0x0f, 0x32, 0x42, 0xad, 0xf9, 0x34,
  0xee, 0xb6, 0x7a, 0x2e, 0xd6, 0x34, 0x33, 0x32, 0x61, 0xb0, 0xd6, 0x2d,
  0x09, 0x2d, 0xcf, 0x34, 0x4c, 0x31, 0x77, 0x31, 0x9b, 0x31, 0x99, 0xad,
  0x0b, 0x30, 0xbd, 0xb5, 0x70, 0xaf, 0xa5, 0xb4, 0x2f, 0xa5, 0xcc, 0xa0,
  0x27, 0xb4, 0xbd, 0x33, 0x42, 0xab, 0x37, 0xb1, 0xc1, 0xb2, 0x9e, 0xb4,
  0x9c, 0x30, 0x91, 0x2d, 0x4e, 0xb5, 0x99, 0x33, 0x17, 0xb8, 0x12, 0x35,
  0x80, 0x31, 0xc5, 0x26, 0x7a, 0x30, 0x02, 0xb5, 0xb0, 0x2e, 0xbe, 0xaf,
  0x39, 0x2a, 0xe1, 0xa9, 0x00, 0x35, 0x08, 0x36, 0x55, 0x27, 0x92, 0x2c,
  0x13, 0x2f, 0x79, 0x33, 0x99, 0xa5, 0x2c, 0x30, 0x90, 0x24, 0xfc, 0x29,
  0x72, 0xad, 0xa7, 0x35, 0x62, 0x36, 0x94, 0x32, 0x6f, 0x30, 0x05, 0x31,
  0xa2, 0x30, 0xb6, 0xac, 0x34, 0x31, 0x6c, 0xac, 0xb6, 0x37, 0x40, 0x32,
  0xab, 0xad, 0xda, 0x33, 0x23, 0x1a, 0x95, 0x30, 0x31, 0x2f, 0xaf, 0x2d,
  0x2b, 0xaf, 0xb7, 0xaf, 0x45, 0x34, 0xd9, 0x31, 0x1e, 0x35, 0x56, 0x30,
  0x08, 0xb2, 0xfd, 0xb5, 0x2a, 0xb3, 0x07, 0xb4, 0x61, 0x33, 0x75, 0x35,
  0xc8, 0x2e, 0x03, 0x1e, 0x1e, 0xb1, 0xbe, 0x30, 0x95, 0xb8, 0x59, 0xb8,
  0xc2, 0x24, 0x16, 0x2d, 0xea, 0xa6, 0x68, 0xa7, 0x3b, 0x2d, 0x98, 0xb7,
  0x12, 0x2e, 0x8d, 0xba, 0xa1, 0xb4, 0xbf, 0xb3, 0xa7, 0xac, 0xc2, 0xad,
  0x5b, 0x33, 0x42, 0xa0, 0x35, 0xb7, 0xae, 0x30, 0xa2, 0xb7, 0xb4, 0x28,
  0x29, 0xb8, 0xef, 0xad, 0x1f, 0x33, 0x28, 0x33, 0xa5, 0x34, 0x5a, 0x30,
  0xf4, 0x34, 0x8b, 0x2f, 0x61, 0x28, 0x83, 0xa5, 0x75, 0x2e, 0xda, 0xad,
  0xc2, 0xb5, 0x65, 0x25, 0xa5, 0x30, 0x7d, 0x34, 0x54, 0x32, 0x04, 0x31,
  0x82, 0x33, 0x5e, 0xb0, 0x45, 0x34, 0x2b, 0xb1, 0x21, 0xb8, 0x29, 0xaf,
  0x33, 0x32, 0xbe, 0xae, 0x84, 0x37, 0xeb, 0x2d, 0xa7, 0xaf, 0x8b, 0x31,
  0x68, 0xad, 0x14, 0x25, 0xb4, 0x31, 0x4f, 0x31, 0xbe, 0xb1, 0x22, 0xb4,
  0x21, 0xa5, 0xf7, 0xa8, 0x46, 0x34, 0xeb, 0xb6, 0x11, 0xb7, 0x5e, 0xac,
  0x85, 0xa2, 0x57, 0x34, 0x71, 0xb4, 0x1a, 0xa0, 0x9a, 0x2f, 0x28, 0xb1,
  0x3a, 0x32, 0x9a, 0x30, 0x85, 0xb5, 0x73, 0x25, 0xe3, 0x29, 0x83, 0x2a,
  0x30, 0x28, 0xbe, 0xad, 0x24, 0x28, 0x5e, 0xaf, 0xdf, 0x34, 0x0f, 0xb4,
  0x65, 0x34, 0x5a, 0x34, 0x8c, 0x34, 0xb9, 0xb6, 0x2d, 0xb3, 0x89, 0x34,
  0xc4, 0x35, 0xc5, 0xb2, 0x44, 0x30, 0x14, 0x2a, 0xdf, 0x99, 0x41, 0xb5,
  0x97, 0xa8, 0x2c, 0x23, 0x71, 0x33, 0xcc, 0xb5, 0xd0, 0x22, 0x14, 0xb1,
  0xef, 0x2b, 0x89, 0xb8, 0xaf, 0xb4, 0x36, 0x25, 0xbc, 0xb3, 0xef, 0x33,
  0x1a, 0x33, 0xc8, 0x31, 0xa5, 0xb8, 0x80, 0x32, 0x41, 0xb8, 0xe8, 0x30,
  0x9d, 0x32, 0x8d, 0x37, 0x34, 0x32, 0xea, 0xb5, 0x71, 0x38, 0xb9, 0xb0,
  0x08, 0xae, 0xe3, 0x30, 0x87, 0xad, 0x6a, 0xae, 0x9b, 0x33, 0x39, 0x33,
  0x10, 0x32, 0x6f, 0xb1, 0x32, 0xaf, 0x17, 0xa9, 0x33, 0x2a, 0x1c, 0xb3,
  0xbe, 0x32, 0x5d, 0x31, 0x28, 0xb8, 0x4b, 0xb4, 0xe9, 0x29, 0xbe, 0xa1,
  0x4f, 0x36, 0xb0, 0xb5, 0xba, 0x30, 0x75, 0x2f, 0x79, 0x28, 0x20, 0x32,
  0x24, 0xb0, 0x09, 0x2f, 0x23, 0xab, 0xe3, 0xb1, 0x42, 0x35, 0x90, 0xb2,
  0xc1, 0x29, 0x04, 0x30, 0xbd, 0x30, 0xab, 0x30, 0x91, 0x34, 0x1b, 0xad,
  0x81, 0xb4, 0x5f, 0xb3, 0x31, 0x36, 0xb4, 0x32, 0xec, 0x36, 0x80, 0x33,
  0x87, 0x2b, 0x37, 0xb5, 0xa3, 0xb1, 0xd8, 0x29, 0x37, 0x32, 0xda, 0xaa,
  0x05, 0xb2, 0x9b, 0x31, 0x95, 0xb0, 0x65, 0x2d, 0x24, 0x34, 0x07, 0x2a,
  0xdb, 0x34, 0x30, 0xaf, 0xdc, 0x35, 0x84, 0x2c, 0xeb, 0xad, 0xb5, 0x2e,
  0xa3, 0x2c, 0x7c, 0x35, 0x11, 0xb4, 0x19, 0xaf, 0x24, 0xb1, 0xec, 0xb6,
  0x7f, 0x2a, 0x7f, 0x22, 0x56, 0x34, 0x8a, 0xad, 0x24, 0xb6, 0xe8, 0xaf,
  0xf2, 0xb3, 0x0c, 0x36, 0x90, 0xb2, 0x32, 0x35, 0xf3, 0x35, 0x3a, 0xaf,
  0x65, 0x30, 0xba, 0x2d, 0xb1, 0x92, 0xb1, 0xb7, 0xc5, 0xa9, 0x24, 0x26,
  0x3a, 0x2e, 0xe1, 0xae, 0x1e, 0x32, 0x07, 0x30, 0xb0, 0x32, 0x80, 0x30,
  0x7d, 0x34, 0x8d, 0xb0, 0x23, 0xb4, 0x80, 0x32, 0x69, 0xaf, 0x8e, 0x2f,
  0xaa, 0x29, 0x3d, 0x31, 0x94, 0x34, 0x6f, 0xb4, 0x98, 0x96, 0x28, 0x34,
  0x43, 0x31, 0x74, 0xb5, 0x70, 0x2a, 0x46, 0xb7, 0xdf, 0xb2, 0x33, 0x33,
  0x37, 0x30, 0x97, 0x32, 0x41, 0xb8, 0x86, 0xb2, 0x42, 0x31, 0x01, 0xa6,
  0xe8, 0xa9, 0x72, 0xaa, 0x3d, 0x29, 0xcb, 0xa8, 0x24, 0x2e, 0xea, 0xb0,
  0x7c, 0xb4, 0x5c, 0x9f, 0x6d, 0x2d, 0x10, 0xb4, 0xd3, 0x21, 0xd2, 0x2c,
  0xdb, 0x22, 0x3f, 0x30, 0xac, 0xb4, 0xe9, 0x30, 0x01, 0xa6, 0x13, 0x31,
  0xb0, 0x2c, 0x51, 0xb3, 0x2e, 0x31, 0xa4, 0x32, 0x11, 0xac, 0xff, 0x2e,
  0x98, 0xb4, 0xfb, 0x33, 0x3e, 0x32, 0x12, 0x2d, 0x61, 0x31, 0x3a, 0xb0,
  0xc0, 0x29, 0x35, 0xb8, 0xe9, 0xb3, 0x81, 0xb1, 0x02, 0xa8, 0x48, 0xb9,
  0x1f, 0x32, 0xa8, 0x34, 0x3a, 0x35, 0xed, 0xad, 0xf9, 0x31, 0x18, 0xb4,
  0x42, 0x25, 0x03, 0xb8, 0x1f, 0xb3, 0x14, 0x27, 0xd0, 0x30, 0x9f, 0xb3,
  0xec, 0x36, 0xa6, 0xa7, 0x60, 0xb7, 0xa7, 0xae, 0xdd, 0xad, 0x2d, 0x30,
  0xc5, 0x9a, 0x74, 0x31, 0x07, 0x34, 0x63, 0x37, 0x31, 0xae, 0xdd, 0x34,
  0x78, 0x33, 0x02, 0x35, 0x39, 0x32, 0x66, 0x34, 0xab, 0xa4, 0xec, 0xad,
  0xda, 0x32, 0x6a, 0x30, 0x27, 0x2d, 0x67, 0xb0, 0xe7, 0x31, 0xe0, 0x34,
  0xd6, 0x30, 0x61, 0x37, 0xc4, 0x33, 0x0d, 0xb4, 0xa1, 0xad, 0xce, 0x34,
  0xa2, 0xa9, 0xab, 0xb0, 0x49, 0x36, 0xf0, 0x31, 0xf0, 0x32, 0x40, 0x33,
  0x36, 0xab, 0x83, 0xb1, 0xaa, 0x2a, 0x2b, 0x28, 0x3c, 0xab, 0x25, 0x36,
  0x96, 0x2a, 0xa4, 0x35, 0x6c, 0x32, 0xdf, 0xb1, 0xa8, 0x24, 0xc3, 0xb0,
  0xad, 0xb2, 0x85, 0x30, 0x62, 0x23, 0xc1, 0x30, 0x6e, 0x2a, 0x97, 0xb1,
  0x62, 0x2f, 0xbb, 0x2e, 0x56, 0xb5, 0xa4, 0x34, 0xb5, 0x2b, 0xa4, 0xb0,
  0x5e, 0x32, 0x29, 0x2c, 0x6d, 0x2d, 0x66, 0x2c, 0x44, 0x33, 0x02, 0x30,
  0x88, 0x35, 0x4d, 0x32, 0x5e, 0x34, 0x28, 0x31, 0x48, 0xa1, 0x38, 0xb6,
  0x6c, 0x32, 0xaf, 0x33, 0x3d, 0x2f, 0x04, 0x30, 0x14, 0xb6, 0x53, 0x2c,
  0x67, 0x2e, 0x9b, 0x2d, 0x0f, 0x2a, 0xe9, 0x34, 0x88, 0xa9, 0x84, 0x30,
  0x0b, 0x34, 0xa8, 0x35, 0xf7, 0x2c, 0x1b, 0x36, 0x31, 0xac, 0xac, 0x2d,
  0x66, 0x32, 0xd4, 0x20, 0x1d, 0x33, 0xe9, 0x27, 0xbd, 0x34, 0x25, 0x31,
  0xab, 0x2c, 0xbc, 0x2c, 0xb1, 0xb0, 0x01, 0x33, 0x99, 0x32, 0xbd, 0x2c,
  0xa9, 0xa5, 0xd0, 0xae, 0x0e, 0x24, 0x51, 0x32, 0x14, 0x30, 0x56, 0x34,
  0x17, 0x2b, 0x04, 0xb2, 0x7a, 0xb6, 0xb9, 0xb2, 0xbb, 0x29, 0x76, 0x38,
  0x66, 0xa1, 0x45, 0x2c, 0xd1, 0x31, 0x21, 0x36, 0x72, 0x35, 0x16, 0xb1,
  0xde, 0x33, 0x57, 0x2f, 0x84, 0xac, 0x66, 0x2a, 0x32, 0xb1, 0xc0, 0x2f,
  0x1e, 0x30, 0x04, 0xa4, 0x88, 0xad, 0xac, 0x28, 0x37, 0x32, 0xd6, 0x2e,
  0x72, 0x2f, 0x75, 0xa0, 0xe6, 0x9c, 0xf6, 0xb3, 0x5c, 0x30, 0xf0, 0xb3,
  0xfd, 0xb1, 0x12, 0xac, 0x2b, 0x23, 0x96, 0xb5, 0x54, 0xb5, 0x1b, 0x36,
  0x8e, 0xb2, 0x51, 0xa9, 0x6a, 0xb4, 0x9a, 0x2f, 0xab, 0x34, 0x4d, 0xa4,
  0xff, 0xac, 0x34, 0x35, 0x5d, 0xaf, 0x29, 0x38, 0x9c, 0x35, 0x21, 0x36,
  0xfb, 0xad, 0x6c, 0xaf, 0xcf, 0xb3, 0xf9, 0xb6, 0x58, 0x37, 0xe2, 0x28,
  0x00, 0x33, 0xb5, 0x37, 0x5a, 0x34, 0x01, 0x2c, 0x9c, 0x29, 0xf9, 0x34,
  0x00, 0x31, 0x0f, 0xa8, 0x8d, 0x34, 0xc7, 0x1d, 0xd4, 0x2b, 0xcb, 0xb5,
  0xda, 0xb4, 0x28, 0x2c, 0x2e, 0xa8, 0xc5, 0xac, 0x57, 0x30, 0xd6, 0x2e,
  0x9b, 0x25, 0x04, 0x34, 0x38, 0xb2, 0xcf, 0x31, 0x30, 0x34, 0x03, 0xb6,
  0xd8, 0x34, 0xd7, 0x30, 0x15, 0xac, 0x2a, 0x2d, 0x18, 0x34, 0xb9, 0x2e,
  0x40, 0x34, 0x11, 0x2c, 0xdc, 0x30, 0x1e, 0x32, 0xd4, 0x32, 0x02, 0xa9,
  0x9e, 0x2d, 0xfe, 0x35, 0x65, 0x33, 0x7d, 0xab, 0x01, 0xb9, 0x92, 0x35,
  0x2c, 0xb1, 0x21, 0xaf, 0x12, 0xa6, 0xe5, 0x37, 0xcb, 0x30, 0x9f, 0x14,
  0xc5, 0x24, 0xd0, 0x23, 0x85, 0xa5, 0xb8, 0xaf, 0xe4, 0x32, 0xa9, 0x30,
  0xbc, 0x30, 0x7a, 0x34, 0xa0, 0x2d, 0x73, 0xae, 0x67, 0x27, 0x87, 0xa7,
  0xc9, 0x31, 0x57, 0x32, 0x0c, 0x30, 0x8e, 0x2c, 0x77, 0xac, 0xc9, 0xb3,
  0xf2, 0x32, 0x33, 0x33, 0x38, 0x35, 0x85, 0xac, 0xbd, 0x30, 0x46, 0xac,
  0x7d, 0xb0, 0x81, 0x37, 0x26, 0x26, 0x19, 0x30, 0xa8, 0xb2, 0xba, 0x36,
  0x3e, 0xb5, 0x8a, 0x30, 0xf6, 0xa7, 0x4f, 0xb0, 0x5d, 0x30, 0x21, 0x32,
  0xaa, 0x31, 0x08, 0x38, 0xef, 0xb2, 0x9b, 0x33, 0xbe, 0xfe, 0xff, 0xff,
  0x04, 0x00, 0x00, 0x00, 0x04, 0x00, 0x00, 0x00, 0xfd, 0xff, 0xff, 0xff,
  0xce, 0xfe, 0xff, 0xff, 0x04, 0x00, 0x00, 0x00, 0x04, 0x00, 0x00, 0x00,
  0x01, 0x00, 0x00, 0x00, 0xde, 0xfe, 0xff, 0xff, 0x04, 0x00, 0x00, 0x00,
  0x04, 0x00, 0x00, 0x00, 0x02, 0x00, 0x00, 0x00, 0x40, 0xde, 0xff, 0xff,
  0x44, 0xde, 0xff, 0xff, 0x0f, 0x00, 0x00, 0x00, 0x4d, 0x4c, 0x49, 0x52,
  0x20, 0x43, 0x6f, 0x6e, 0x76, 0x65, 0x72, 0x74, 0x65, 0x64, 0x2e, 0x00,
  0x01, 0x00, 0x00, 0x00, 0x14, 0x00, 0x00, 0x00, 0x00, 0x00, 0x0e, 0x00,
  0x18, 0x00, 0x14, 0x00, 0x10, 0x00, 0x0c, 0x00, 0x08, 0x00, 0x04, 0x00,
  0x0e, 0x00, 0x00, 0x00, 0x14, 0x00, 0x00, 0x00, 0x1c, 0x00, 0x00, 0x00,
  0x7c, 0x07, 0x00, 0x00, 0x80, 0x07, 0x00, 0x00, 0x84, 0x07, 0x00, 0x00,
  0x04, 0x00, 0x00, 0x00, 0x6d, 0x61, 0x69, 0x6e, 0x00, 0x00, 0x00, 0x00,
  0x27, 0x00, 0x00, 0x00, 0x44, 0x07, 0x00, 0x00, 0x18, 0x07, 0x00, 0x00,
  0xf8, 0x06, 0x00, 0x00, 0xd8, 0x06, 0x00, 0x00, 0xb8, 0x06, 0x00, 0x00,
  0x98, 0x06, 0x00, 0x00, 0x78, 0x06, 0x00, 0x00, 0x58, 0x06, 0x00, 0x00,
  0x38, 0x06, 0x00, 0x00, 0x18, 0x06, 0x00, 0x00, 0xf8, 0x05, 0x00, 0x00,
  0xd8, 0x05, 0x00, 0x00, 0xb8, 0x05, 0x00, 0x00, 0x98, 0x05, 0x00, 0x00,
  0x64, 0x05, 0x00, 0x00, 0x04, 0x05, 0x00, 0x00, 0xdc, 0x04, 0x00, 0x00,
  0x9c, 0x04, 0x00, 0x00, 0x58, 0x04, 0x00, 0x00, 0x30, 0x04, 0x00, 0x00,
  0xfc, 0x03, 0x00, 0x00, 0xa8, 0x03, 0x00, 0x00, 0x70, 0x03, 0x00, 0x00,
  0x3c, 0x03, 0x00, 0x00, 0xf8, 0x02, 0x00, 0x00, 0xd0, 0x02, 0x00, 0x00,
  0x9c, 0x02, 0x00, 0x00, 0x58, 0x02, 0x00, 0x00, 0x30, 0x02, 0x00, 0x00,
  0xfc, 0x01, 0x00, 0x00, 0xb8, 0x01, 0x00, 0x00, 0x90, 0x01, 0x00, 0x00,
  0x5c, 0x01, 0x00, 0x00, 0x18, 0x01, 0x00, 0x00, 0xf0, 0x00, 0x00, 0x00,
  0xbc, 0x00, 0x00, 0x00, 0x78, 0x00, 0x00, 0x00, 0x40, 0x00, 0x00, 0x00,
